{
  "version": "1.0",
  "truncation": {
    "direction": "Right",
    "max_length": 50,
    "strategy": "LongestFirst",
    "stride": 0
  },
  "padding": {
    "strategy": {
      "Fixed": 50
    },
    "direction": "Right",
    "pad_to_multiple_of": null,
    "pad_id": 0,
    "pad_type_id": 0,
    "pad_token": "<pad>"
  },
  "added_tokens": [
    {
      "id": 0,
      "content": "<pad>",
      "single_word": false,
      "lstrip": false,
      "rstrip": false,
      "normalized": false,
      "special": true
    },
    {
      "id": 1,
      "content": "</s>",
      "single_word": false,
      "lstrip": false,
      "rstrip": false,
      "normalized": false,
      "special": true
    },
    {
      "id": 2,
      "content": "<unk>",
      "single_word": false,
      "lstrip": false,
      "rstrip": false,
      "normalized": false,
      "special": true
    },
    {
      "id": 36000,
      "content": "<extra_id_95>",
      "single_word": false,
      "lstrip": false,
      "rstrip": false,
      "normalized": false,
      "special": true
    },
    {
      "id": 36001,
      "content": "<extra_id_94>",
      "single_word": false,
      "lstrip": false,
      "rstrip": false,
      "normalized": false,
      "special": true
    },
    {
      "id": 36002,
      "content": "<extra_id_93>",
      "single_word": false,
      "lstrip": false,
      "rstrip": false,
      "normalized": false,
      "special": true
    },
    {
      "id": 36003,
      "content": "<extra_id_92>",
      "single_word": false,
      "lstrip": false,
      "rstrip": false,
      "normalized": false,
      "special": true
    },
    {
      "id": 36004,
      "content": "<extra_id_91>",
      "single_word": false,
      "lstrip": false,
      "rstrip": false,
      "normalized": false,
      "special": true
    },
    {
      "id": 36005,
      "content": "<extra_id_90>",
      "single_word": false,
      "lstrip": false,
      "rstrip": false,
      "normalized": false,
      "special": true
    },
    {
      "id": 36006,
      "content": "<extra_id_89>",
      "single_word": false,
      "lstrip": false,
      "rstrip": false,
      "normalized": false,
      "special": true
    },
    {
      "id": 36007,
      "content": "<extra_id_88>",
      "single_word": false,
      "lstrip": false,
      "rstrip": false,
      "normalized": false,
      "special": true
    },
    {
      "id": 36008,
      "content": "<extra_id_87>",
      "single_word": false,
      "lstrip": false,
      "rstrip": false,
      "normalized": false,
      "special": true
    },
    {
      "id": 36009,
      "content": "<extra_id_86>",
      "single_word": false,
      "lstrip": false,
      "rstrip": false,
      "normalized": false,
      "special": true
    },
    {
      "id": 36010,
      "content": "<extra_id_85>",
      "single_word": false,
      "lstrip": false,
      "rstrip": false,
      "normalized": false,
      "special": true
    },
    {
      "id": 36011,
      "content": "<extra_id_84>",
      "single_word": false,
      "lstrip": false,
      "rstrip": false,
      "normalized": false,
      "special": true
    },
    {
      "id": 36012,
      "content": "<extra_id_83>",
      "single_word": false,
      "lstrip": false,
      "rstrip": false,
      "normalized": false,
      "special": true
    },
    {
      "id": 36013,
      "content": "<extra_id_82>",
      "single_word": false,
      "lstrip": false,
      "rstrip": false,
      "normalized": false,
      "special": true
    },
    {
      "id": 36014,
      "content": "<extra_id_81>",
      "single_word": false,
      "lstrip": false,
      "rstrip": false,
      "normalized": false,
      "special": true
    },
    {
      "id": 36015,
      "content": "<extra_id_80>",
      "single_word": false,
      "lstrip": false,
      "rstrip": false,
      "normalized": false,
      "special": true
    },
    {
      "id": 36016,
      "content": "<extra_id_79>",
      "single_word": false,
      "lstrip": false,
      "rstrip": false,
      "normalized": false,
      "special": true
    },
    {
      "id": 36017,
      "content": "<extra_id_78>",
      "single_word": false,
      "lstrip": false,
      "rstrip": false,
      "normalized": false,
      "special": true
    },
    {
      "id": 36018,
      "content": "<extra_id_77>",
      "single_word": false,
      "lstrip": false,
      "rstrip": false,
      "normalized": false,
      "special": true
    },
    {
      "id": 36019,
      "content": "<extra_id_76>",
      "single_word": false,
      "lstrip": false,
      "rstrip": false,
      "normalized": false,
      "special": true
    },
    {
      "id": 36020,
      "content": "<extra_id_75>",
      "single_word": false,
      "lstrip": false,
      "rstrip": false,
      "normalized": false,
      "special": true
    },
    {
      "id": 36021,
      "content": "<extra_id_74>",
      "single_word": false,
      "lstrip": false,
      "rstrip": false,
      "normalized": false,
      "special": true
    },
    {
      "id": 36022,
      "content": "<extra_id_73>",
      "single_word": false,
      "lstrip": false,
      "rstrip": false,
      "normalized": false,
      "special": true
    },
    {
      "id": 36023,
      "content": "<extra_id_72>",
      "single_word": false,
      "lstrip": false,
      "rstrip": false,
      "normalized": false,
      "special": true
    },
    {
      "id": 36024,
      "content": "<extra_id_71>",
      "single_word": false,
      "lstrip": false,
      "rstrip": false,
      "normalized": false,
      "special": true
    },
    {
      "id": 36025,
      "content": "<extra_id_70>",
      "single_word": false,
      "lstrip": false,
      "rstrip": false,
      "normalized": false,
      "special": true
    },
    {
      "id": 36026,
      "content": "<extra_id_69>",
      "single_word": false,
      "lstrip": false,
      "rstrip": false,
      "normalized": false,
      "special": true
    },
    {
      "id": 36027,
      "content": "<extra_id_68>",
      "single_word": false,
      "lstrip": false,
      "rstrip": false,
      "normalized": false,
      "special": true
    },
    {
      "id": 36028,
      "content": "<extra_id_67>",
      "single_word": false,
      "lstrip": false,
      "rstrip": false,
      "normalized": false,
      "special": true
    },
    {
      "id": 36029,
      "content": "<extra_id_66>",
      "single_word": false,
      "lstrip": false,
      "rstrip": false,
      "normalized": false,
      "special": true
    },
    {
      "id": 36030,
      "content": "<extra_id_65>",
      "single_word": false,
      "lstrip": false,
      "rstrip": false,
      "normalized": false,
      "special": true
    },
    {
      "id": 36031,
      "content": "<extra_id_64>",
      "single_word": false,
      "lstrip": false,
      "rstrip": false,
      "normalized": false,
      "special": true
    },
    {
      "id": 36032,
      "content": "<extra_id_63>",
      "single_word": false,
      "lstrip": false,
      "rstrip": false,
      "normalized": false,
      "special": true
    },
    {
      "id": 36033,
      "content": "<extra_id_62>",
      "single_word": false,
      "lstrip": false,
      "rstrip": false,
      "normalized": false,
      "special": true
    },
    {
      "id": 36034,
      "content": "<extra_id_61>",
      "single_word": false,
      "lstrip": false,
      "rstrip": false,
      "normalized": false,
      "special": true
    },
    {
      "id": 36035,
      "content": "<extra_id_60>",
      "single_word": false,
      "lstrip": false,
      "rstrip": false,
      "normalized": false,
      "special": true
    },
    {
      "id": 36036,
      "content": "<extra_id_59>",
      "single_word": false,
      "lstrip": false,
      "rstrip": false,
      "normalized": false,
      "special": true
    },
    {
      "id": 36037,
      "content": "<extra_id_58>",
      "single_word": false,
      "lstrip": false,
      "rstrip": false,
      "normalized": false,
      "special": true
    },
    {
      "id": 36038,
      "content": "<extra_id_57>",
      "single_word": false,
      "lstrip": false,
      "rstrip": false,
      "normalized": false,
      "special": true
    },
    {
      "id": 36039,
      "content": "<extra_id_56>",
      "single_word": false,
      "lstrip": false,
      "rstrip": false,
      "normalized": false,
      "special": true
    },
    {
      "id": 36040,
      "content": "<extra_id_55>",
      "single_word": false,
      "lstrip": false,
      "rstrip": false,
      "normalized": false,
      "special": true
    },
    {
      "id": 36041,
      "content": "<extra_id_54>",
      "single_word": false,
      "lstrip": false,
      "rstrip": false,
      "normalized": false,
      "special": true
    },
    {
      "id": 36042,
      "content": "<extra_id_53>",
      "single_word": false,
      "lstrip": false,
      "rstrip": false,
      "normalized": false,
      "special": true
    },
    {
      "id": 36043,
      "content": "<extra_id_52>",
      "single_word": false,
      "lstrip": false,
      "rstrip": false,
      "normalized": false,
      "special": true
    },
    {
      "id": 36044,
      "content": "<extra_id_51>",
      "single_word": false,
      "lstrip": false,
      "rstrip": false,
      "normalized": false,
      "special": true
    },
    {
      "id": 36045,
      "content": "<extra_id_50>",
      "single_word": false,
      "lstrip": false,
      "rstrip": false,
      "normalized": false,
      "special": true
    },
    {
      "id": 36046,
      "content": "<extra_id_49>",
      "single_word": false,
      "lstrip": false,
      "rstrip": false,
      "normalized": false,
      "special": true
    },
    {
      "id": 36047,
      "content": "<extra_id_48>",
      "single_word": false,
      "lstrip": false,
      "rstrip": false,
      "normalized": false,
      "special": true
    },
    {
      "id": 36048,
      "content": "<extra_id_47>",
      "single_word": false,
      "lstrip": false,
      "rstrip": false,
      "normalized": false,
      "special": true
    },
    {
      "id": 36049,
      "content": "<extra_id_46>",
      "single_word": false,
      "lstrip": false,
      "rstrip": false,
      "normalized": false,
      "special": true
    },
    {
      "id": 36050,
      "content": "<extra_id_45>",
      "single_word": false,
      "lstrip": false,
      "rstrip": false,
      "normalized": false,
      "special": true
    },
    {
      "id": 36051,
      "content": "<extra_id_44>",
      "single_word": false,
      "lstrip": false,
      "rstrip": false,
      "normalized": false,
      "special": true
    },
    {
      "id": 36052,
      "content": "<extra_id_43>",
      "single_word": false,
      "lstrip": false,
      "rstrip": false,
      "normalized": false,
      "special": true
    },
    {
      "id": 36053,
      "content": "<extra_id_42>",
      "single_word": false,
      "lstrip": false,
      "rstrip": false,
      "normalized": false,
      "special": true
    },
    {
      "id": 36054,
      "content": "<extra_id_41>",
      "single_word": false,
      "lstrip": false,
      "rstrip": false,
      "normalized": false,
      "special": true
    },
    {
      "id": 36055,
      "content": "<extra_id_40>",
      "single_word": false,
      "lstrip": false,
      "rstrip": false,
      "normalized": false,
      "special": true
    },
    {
      "id": 36056,
      "content": "<extra_id_39>",
      "single_word": false,
      "lstrip": false,
      "rstrip": false,
      "normalized": false,
      "special": true
    },
    {
      "id": 36057,
      "content": "<extra_id_38>",
      "single_word": false,
      "lstrip": false,
      "rstrip": false,
      "normalized": false,
      "special": true
    },
    {
      "id": 36058,
      "content": "<extra_id_37>",
      "single_word": false,
      "lstrip": false,
      "rstrip": false,
      "normalized": false,
      "special": true
    },
    {
      "id": 36059,
      "content": "<extra_id_36>",
      "single_word": false,
      "lstrip": false,
      "rstrip": false,
      "normalized": false,
      "special": true
    },
    {
      "id": 36060,
      "content": "<extra_id_35>",
      "single_word": false,
      "lstrip": false,
      "rstrip": false,
      "normalized": false,
      "special": true
    },
    {
      "id": 36061,
      "content": "<extra_id_34>",
      "single_word": false,
      "lstrip": false,
      "rstrip": false,
      "normalized": false,
      "special": true
    },
    {
      "id": 36062,
      "content": "<extra_id_33>",
      "single_word": false,
      "lstrip": false,
      "rstrip": false,
      "normalized": false,
      "special": true
    },
    {
      "id": 36063,
      "content": "<extra_id_32>",
      "single_word": false,
      "lstrip": false,
      "rstrip": false,
      "normalized": false,
      "special": true
    },
    {
      "id": 36064,
      "content": "<extra_id_31>",
      "single_word": false,
      "lstrip": false,
      "rstrip": false,
      "normalized": false,
      "special": true
    },
    {
      "id": 36065,
      "content": "<extra_id_30>",
      "single_word": false,
      "lstrip": false,
      "rstrip": false,
      "normalized": false,
      "special": true
    },
    {
      "id": 36066,
      "content": "<extra_id_29>",
      "single_word": false,
      "lstrip": false,
      "rstrip": false,
      "normalized": false,
      "special": true
    },
    {
      "id": 36067,
      "content": "<extra_id_28>",
      "single_word": false,
      "lstrip": false,
      "rstrip": false,
      "normalized": false,
      "special": true
    },
    {
      "id": 36068,
      "content": "<extra_id_27>",
      "single_word": false,
      "lstrip": false,
      "rstrip": false,
      "normalized": false,
      "special": true
    },
    {
      "id": 36069,
      "content": "<extra_id_26>",
      "single_word": false,
      "lstrip": false,
      "rstrip": false,
      "normalized": false,
      "special": true
    },
    {
      "id": 36070,
      "content": "<extra_id_25>",
      "single_word": false,
      "lstrip": false,
      "rstrip": false,
      "normalized": false,
      "special": true
    },
    {
      "id": 36071,
      "content": "<extra_id_24>",
      "single_word": false,
      "lstrip": false,
      "rstrip": false,
      "normalized": false,
      "special": true
    },
    {
      "id": 36072,
      "content": "<extra_id_23>",
      "single_word": false,
      "lstrip": false,
      "rstrip": false,
      "normalized": false,
      "special": true
    },
    {
      "id": 36073,
      "content": "<extra_id_22>",
      "single_word": false,
      "lstrip": false,
      "rstrip": false,
      "normalized": false,
      "special": true
    },
    {
      "id": 36074,
      "content": "<extra_id_21>",
      "single_word": false,
      "lstrip": false,
      "rstrip": false,
      "normalized": false,
      "special": true
    },
    {
      "id": 36075,
      "content": "<extra_id_20>",
      "single_word": false,
      "lstrip": false,
      "rstrip": false,
      "normalized": false,
      "special": true
    },
    {
      "id": 36076,
      "content": "<extra_id_19>",
      "single_word": false,
      "lstrip": false,
      "rstrip": false,
      "normalized": false,
      "special": true
    },
    {
      "id": 36077,
      "content": "<extra_id_18>",
      "single_word": false,
      "lstrip": false,
      "rstrip": false,
      "normalized": false,
      "special": true
    },
    {
      "id": 36078,
      "content": "<extra_id_17>",
      "single_word": false,
      "lstrip": false,
      "rstrip": false,
      "normalized": false,
      "special": true
    },
    {
      "id": 36079,
      "content": "<extra_id_16>",
      "single_word": false,
      "lstrip": false,
      "rstrip": false,
      "normalized": false,
      "special": true
    },
    {
      "id": 36080,
      "content": "<extra_id_15>",
      "single_word": false,
      "lstrip": false,
      "rstrip": false,
      "normalized": false,
      "special": true
    },
    {
      "id": 36081,
      "content": "<extra_id_14>",
      "single_word": false,
      "lstrip": false,
      "rstrip": false,
      "normalized": false,
      "special": true
    },
    {
      "id": 36082,
      "content": "<extra_id_13>",
      "single_word": false,
      "lstrip": false,
      "rstrip": false,
      "normalized": false,
      "special": true
    },
    {
      "id": 36083,
      "content": "<extra_id_12>",
      "single_word": false,
      "lstrip": false,
      "rstrip": false,
      "normalized": false,
      "special": true
    },
    {
      "id": 36084,
      "content": "<extra_id_11>",
      "single_word": false,
      "lstrip": false,
      "rstrip": false,
      "normalized": false,
      "special": true
    },
    {
      "id": 36085,
      "content": "<extra_id_10>",
      "single_word": false,
      "lstrip": false,
      "rstrip": false,
      "normalized": false,
      "special": true
    },
    {
      "id": 36086,
      "content": "<extra_id_9>",
      "single_word": false,
      "lstrip": false,
      "rstrip": false,
      "normalized": false,
      "special": true
    },
    {
      "id": 36087,
      "content": "<extra_id_8>",
      "single_word": false,
      "lstrip": false,
      "rstrip": false,
      "normalized": false,
      "special": true
    },
    {
      "id": 36088,
      "content": "<extra_id_7>",
      "single_word": false,
      "lstrip": false,
      "rstrip": false,
      "normalized": false,
      "special": true
    },
    {
      "id": 36089,
      "content": "<extra_id_6>",
      "single_word": false,
      "lstrip": false,
      "rstrip": false,
      "normalized": false,
      "special": true
    },
    {
      "id": 36090,
      "content": "<extra_id_5>",
      "single_word": false,
      "lstrip": false,
      "rstrip": false,
      "normalized": false,
      "special": true
    },
    {
      "id": 36091,
      "content": "<extra_id_4>",
      "single_word": false,
      "lstrip": false,
      "rstrip": false,
      "normalized": false,
      "special": true
    },
    {
      "id": 36092,
      "content": "<extra_id_3>",
      "single_word": false,
      "lstrip": false,
      "rstrip": false,
      "normalized": false,
      "special": true
    },
    {
      "id": 36093,
      "content": "<extra_id_2>",
      "single_word": false,
      "lstrip": false,
      "rstrip": false,
      "normalized": false,
      "special": true
    },
    {
      "id": 36094,
      "content": "<extra_id_1>",
      "single_word": false,
      "lstrip": false,
      "rstrip": false,
      "normalized": false,
      "special": true
    },
    {
      "id": 36095,
      "content": "<extra_id_0>",
      "single_word": false,
      "lstrip": false,
      "rstrip": false,
      "normalized": false,
      "special": true
    }
  ],
  "normalizer": null,
  "pre_tokenizer": {
    "type": "Sequence",
    "pretokenizers": [
      {
        "type": "WhitespaceSplit"
      },
      {
        "type": "Metaspace",
        "replacement": "▁",
        "prepend_scheme": "always",
        "split": true
      }
    ]
  },
  "post_processor": {
    "type": "TemplateProcessing",
    "single": [
      {
        "Sequence": {
          "id": "A",
          "type_id": 0
        }
      },
      {
        "SpecialToken": {
          "id": "</s>",
          "type_id": 0
        }
      }
    ],
    "pair": [
      {
        "Sequence": {
          "id": "A",
          "type_id": 0
        }
      },
      {
        "SpecialToken": {
          "id": "</s>",
          "type_id": 0
        }
      },
      {
        "Sequence": {
          "id": "B",
          "type_id": 0
        }
      },
      {
        "SpecialToken": {
          "id": "</s>",
          "type_id": 0
        }
      }
    ],
    "special_tokens": {
      "</s>": {
        "id": "</s>",
        "ids": [
          1
        ],
        "tokens": [
          "</s>"
        ]
      }
    }
  },
  "decoder": {
    "type": "Metaspace",
    "replacement": "▁",
    "prepend_scheme": "always",
    "split": true
  },
  "model": {
    "type": "Unigram",
    "unk_id": 2,
    "vocab": [
      [
        "<pad>",
        0.0
      ],
      [
        "</s>",
        0.0
      ],
      [
        "<unk>",
        0.0
      ],
      [
        "ng",
        -0.0
      ],
      [
        "▁t",
        -1.0
      ],
      [
        "▁,",
        -2.0
      ],
      [
        "▁.",
        -3.0
      ],
      [
        "▁c",
        -4.0
      ],
      [
        "▁Đ",
        -5.0
      ],
      [
        "▁đ",
        -6.0
      ],
      [
        "nh",
        -7.0
      ],
      [
        "▁v",
        -8.0
      ],
      [
        "▁l",
        -9.0
      ],
      [
        "▁th",
        -10.0
      ],
      [
        "▁h",
        -11.0
      ],
      [
        "▁b",
        -12.0
      ],
      [
        "▁ch",
        -13.0
      ],
      [
        "▁tr",
        -14.0
      ],
      [
        "▁k",
        -15.0
      ],
      [
        "▁m",
        -16.0
      ],
      [
        "▁n",
        -17.0
      ],
      [
        "▁T",
        -18.0
      ],
      [
        "▁s",
        -19.0
      ],
      [
        "▁nh",
        -20.0
      ],
      [
        "▁kh",
        -21.0
      ],
      [
        "▁ng",
        -22.0
      ],
      [
        "▁\"",
        -23.0
      ],
      [
        "ượ",
        -24.0
      ],
      [
        "ph",
        -25.0
      ],
      [
        "▁g",
        -26.0
      ],
      [
        "▁ph",
        -27.0
      ],
      [
        "ông",
        -28.0
      ],
      [
        "▁)",
        -29.0
      ],
      [
        "▁(",
        -30.0
      ],
      [
        "ên",
        -31.0
      ],
      [
        "▁d",
        -32.0
      ],
      [
        "iệ",
        -33.0
      ],
      [
        "ược",
        -34.0
      ],
      [
        "▁-",
        -35.0
      ],
      [
        "▁và",
        -36.0
      ],
      [
        "▁1",
        -37.0
      ],
      [
        "ác",
        -38.0
      ],
      [
        "qu",
        -39.0
      ],
      [
        "▁N",
        -40.0
      ],
      [
        "▁qu",
        -41.0
      ],
      [
        "▁C",
        -42.0
      ],
      [
        "ườ",
        -43.0
      ],
      [
        "▁gi",
        -44.0
      ],
      [
        "an",
        -45.0
      ],
      [
        "▁là",
        -46.0
      ],
      [
        "▁0",
        -47.0
      ],
      [
        "iế",
        -48.0
      ],
      [
        "▁x",
        -49.0
      ],
      [
        "▁củ",
        -50.0
      ],
      [
        "▁của",
        -51.0
      ],
      [
        "ại",
        -52.0
      ],
      [
        "▁H",
        -53.0
      ],
      [
        "ân",
        -54.0
      ],
      [
        "ong",
        -55.0
      ],
      [
        "uy",
        -56.0
      ],
      [
        "▁2",
        -57.0
      ],
      [
        "▁r",
        -58.0
      ],
      [
        "ột",
        -59.0
      ],
      [
        "▁/",
        -60.0
      ],
      [
        "ới",
        -61.0
      ],
      [
        "iề",
        -62.0
      ],
      [
        "ày",
        -63.0
      ],
      [
        "▁B",
        -64.0
      ],
      [
        "▁một",
        -65.0
      ],
      [
        "▁Được",
        -66.0
      ],
      [
        "▁Th",
        -67.0
      ],
      [
        "▁có",
        -68.0
      ],
      [
        "▁các",
        -69.0
      ],
      [
        "▁:",
        -70.0
      ],
      [
        "▁được",
        -71.0
      ],
      [
        "▁L",
        -72.0
      ],
      [
        "iên",
        -73.0
      ],
      [
        "ình",
        -74.0
      ],
      [
        "ầu",
        -75.0
      ],
      [
        "▁M",
        -76.0
      ],
      [
        "▁trong",
        -77.0
      ],
      [
        "ất",
        -78.0
      ],
      [
        "ến",
        -79.0
      ],
      [
        "oà",
        -80.0
      ],
      [
        "ang",
        -81.0
      ],
      [
        "▁Đã",
        -82.0
      ],
      [
        "▁đã",
        -83.0
      ],
      [
        "iều",
        -84.0
      ],
      [
        "iện",
        -85.0
      ],
      [
        "▁S",
        -86.0
      ],
      [
        "ười",
        -87.0
      ],
      [
        "ối",
        -88.0
      ],
      [
        "▁P",
        -89.0
      ],
      [
        "▁người",
        -90.0
      ],
      [
        "▁Tr",
        -91.0
      ],
      [
        "▁V",
        -92.0
      ],
      [
        "ường",
        -93.0
      ],
      [
        "iể",
        -94.0
      ],
      [
        "ướ",
        -95.0
      ],
      [
        "ch",
        -96.0
      ],
      [
        "▁cho",
        -97.0
      ],
      [
        "ai",
        -98.0
      ],
      [
        "ành",
        -99.0
      ],
      [
        "ăm",
        -100.0
      ],
      [
        "▁9",
        -101.0
      ],
      [
        "ồng",
        -102.0
      ],
      [
        "▁Ng",
        -103.0
      ],
      [
        "▁Ở",
        -104.0
      ],
      [
        "ực",
        -105.0
      ],
      [
        "▁Ô",
        -106.0
      ],
      [
        "▁ở",
        -107.0
      ],
      [
        "ay",
        -108.0
      ],
      [
        "ốc",
        -109.0
      ],
      [
        "inh",
        -110.0
      ],
      [
        "ộng",
        -111.0
      ],
      [
        "ội",
        -112.0
      ],
      [
        "ịnh",
        -113.0
      ],
      [
        "▁K",
        -114.0
      ],
      [
        "▁này",
        -115.0
      ],
      [
        "ơng",
        -116.0
      ],
      [
        "anh",
        -117.0
      ],
      [
        "▁họ",
        -118.0
      ],
      [
        "▁3",
        -119.0
      ],
      [
        "▁với",
        -120.0
      ],
      [
        "ận",
        -121.0
      ],
      [
        "am",
        -122.0
      ],
      [
        "ương",
        -123.0
      ],
      [
        "▁A",
        -124.0
      ],
      [
        "▁năm",
        -125.0
      ],
      [
        "▁không",
        -126.0
      ],
      [
        "ây",
        -127.0
      ],
      [
        "in",
        -128.0
      ],
      [
        "ần",
        -129.0
      ],
      [
        "ước",
        -130.0
      ],
      [
        "▁5",
        -131.0
      ],
      [
        "ức",
        -132.0
      ],
      [
        "ung",
        -133.0
      ],
      [
        "ải",
        -134.0
      ],
      [
        "▁bị",
        -135.0
      ],
      [
        "át",
        -136.0
      ],
      [
        "on",
        -137.0
      ],
      [
        "ộc",
        -138.0
      ],
      [
        "au",
        -139.0
      ],
      [
        "▁Q",
        -140.0
      ],
      [
        "ật",
        -141.0
      ],
      [
        "▁4",
        -142.0
      ],
      [
        "iến",
        -143.0
      ],
      [
        "áo",
        -144.0
      ],
      [
        "ao",
        -145.0
      ],
      [
        "ản",
        -146.0
      ],
      [
        "▁Ông",
        -147.0
      ],
      [
        "▁8",
        -148.0
      ],
      [
        "▁tại",
        -149.0
      ],
      [
        "▁ngh",
        -150.0
      ],
      [
        "▁Ch",
        -151.0
      ],
      [
        "án",
        -152.0
      ],
      [
        "ết",
        -153.0
      ],
      [
        "ống",
        -154.0
      ],
      [
        "▁Ph",
        -155.0
      ],
      [
        "oài",
        -156.0
      ],
      [
        "▁D",
        -157.0
      ],
      [
        "▁Qu",
        -158.0
      ],
      [
        "▁vào",
        -159.0
      ],
      [
        "▁6",
        -160.0
      ],
      [
        "ính",
        -161.0
      ],
      [
        "eo",
        -162.0
      ],
      [
        "▁7",
        -163.0
      ],
      [
        "▁Đó",
        -164.0
      ],
      [
        "er",
        -165.0
      ],
      [
        "áng",
        -166.0
      ],
      [
        "▁ra",
        -167.0
      ],
      [
        "▁công",
        -168.0
      ],
      [
        "ơn",
        -169.0
      ],
      [
        "▁đó",
        -170.0
      ],
      [
        "▁Để",
        -171.0
      ],
      [
        "ùng",
        -172.0
      ],
      [
        "▁Đến",
        -173.0
      ],
      [
        "▁thu",
        -174.0
      ],
      [
        "▁Á",
        -175.0
      ],
      [
        "▁khi",
        -176.0
      ],
      [
        "▁để",
        -177.0
      ],
      [
        "ời",
        -178.0
      ],
      [
        "▁từ",
        -179.0
      ],
      [
        "▁về",
        -180.0
      ],
      [
        "ững",
        -181.0
      ],
      [
        "ạn",
        -182.0
      ],
      [
        "▁G",
        -183.0
      ],
      [
        "▁như",
        -184.0
      ],
      [
        "▁ông",
        -185.0
      ],
      [
        "▁đến",
        -186.0
      ],
      [
        "ưa",
        -187.0
      ],
      [
        "ánh",
        -188.0
      ],
      [
        "ập",
        -189.0
      ],
      [
        "iểm",
        -190.0
      ],
      [
        "iết",
        -191.0
      ],
      [
        "▁trên",
        -192.0
      ],
      [
        "ar",
        -193.0
      ],
      [
        "ăng",
        -194.0
      ],
      [
        "▁ngày",
        -195.0
      ],
      [
        "iệc",
        -196.0
      ],
      [
        "▁Nh",
        -197.0
      ],
      [
        "ổi",
        -198.0
      ],
      [
        "▁Đầu",
        -199.0
      ],
      [
        "en",
        -200.0
      ],
      [
        "▁những",
        -201.0
      ],
      [
        "ượng",
        -202.0
      ],
      [
        "▁quan",
        -203.0
      ],
      [
        "▁;",
        -204.0
      ],
      [
        "ục",
        -205.0
      ],
      [
        "▁ho",
        -206.0
      ],
      [
        "▁số",
        -207.0
      ],
      [
        "▁đầu",
        -208.0
      ],
      [
        "▁quy",
        -209.0
      ],
      [
        "ái",
        -210.0
      ],
      [
        "ia",
        -211.0
      ],
      [
        "ăn",
        -212.0
      ],
      [
        "ạt",
        -213.0
      ],
      [
        "▁việc",
        -214.0
      ],
      [
        "oàn",
        -215.0
      ],
      [
        "▁hiện",
        -216.0
      ],
      [
        "àng",
        -217.0
      ],
      [
        "▁sự",
        -218.0
      ],
      [
        "▁vụ",
        -219.0
      ],
      [
        "ảo",
        -220.0
      ],
      [
        "ạo",
        -221.0
      ],
      [
        "ũng",
        -222.0
      ],
      [
        "▁Đồng",
        -223.0
      ],
      [
        "ài",
        -224.0
      ],
      [
        "▁kho",
        -225.0
      ],
      [
        "ảng",
        -226.0
      ],
      [
        "▁Định",
        -227.0
      ],
      [
        "êu",
        -228.0
      ],
      [
        "ôi",
        -229.0
      ],
      [
        "▁nhà",
        -230.0
      ],
      [
        "▁nhân",
        -231.0
      ],
      [
        "▁hành",
        -232.0
      ],
      [
        "iệt",
        -233.0
      ],
      [
        "áp",
        -234.0
      ],
      [
        "▁định",
        -235.0
      ],
      [
        "▁làm",
        -236.0
      ],
      [
        "▁thành",
        -237.0
      ],
      [
        "ằng",
        -238.0
      ],
      [
        "ấn",
        -239.0
      ],
      [
        "▁thể",
        -240.0
      ],
      [
        "al",
        -241.0
      ],
      [
        "ền",
        -242.0
      ],
      [
        "▁nước",
        -243.0
      ],
      [
        "▁đồng",
        -244.0
      ],
      [
        "▁Đối",
        -245.0
      ],
      [
        "▁Động",
        -246.0
      ],
      [
        "▁chính",
        -247.0
      ],
      [
        "▁cả",
        -248.0
      ],
      [
        "▁Điều",
        -249.0
      ],
      [
        "▁Ả",
        -250.0
      ],
      [
        "▁gia",
        -251.0
      ],
      [
        "uyên",
        -252.0
      ],
      [
        "▁động",
        -253.0
      ],
      [
        "▁dân",
        -254.0
      ],
      [
        "▁Quốc",
        -255.0
      ],
      [
        "▁cũng",
        -256.0
      ],
      [
        "▁an",
        -257.0
      ],
      [
        "âm",
        -258.0
      ],
      [
        "ịa",
        -259.0
      ],
      [
        "ấy",
        -260.0
      ],
      [
        "ặc",
        -261.0
      ],
      [
        "▁lại",
        -262.0
      ],
      [
        "▁cu",
        -263.0
      ],
      [
        "ắt",
        -264.0
      ],
      [
        "▁học",
        -265.0
      ],
      [
        "òng",
        -266.0
      ],
      [
        "úng",
        -267.0
      ],
      [
        "▁đối",
        -268.0
      ],
      [
        "▁sau",
        -269.0
      ],
      [
        "ạm",
        -270.0
      ],
      [
        "▁xe",
        -271.0
      ],
      [
        "uyệ",
        -272.0
      ],
      [
        "iệu",
        -273.0
      ],
      [
        "êm",
        -274.0
      ],
      [
        "ễn",
        -275.0
      ],
      [
        "ấp",
        -276.0
      ],
      [
        "▁'",
        -277.0
      ],
      [
        "ích",
        -278.0
      ],
      [
        "▁tiế",
        -279.0
      ],
      [
        "ách",
        -280.0
      ],
      [
        "▁do",
        -281.0
      ],
      [
        "ứng",
        -282.0
      ],
      [
        "▁nhiều",
        -283.0
      ],
      [
        "▁tháng",
        -284.0
      ],
      [
        "▁I",
        -285.0
      ],
      [
        "ặt",
        -286.0
      ],
      [
        "▁điều",
        -287.0
      ],
      [
        "àn",
        -288.0
      ],
      [
        "▁Trung",
        -289.0
      ],
      [
        "áy",
        -290.0
      ],
      [
        "uyện",
        -291.0
      ],
      [
        "ỉnh",
        -292.0
      ],
      [
        "iền",
        -293.0
      ],
      [
        "âu",
        -294.0
      ],
      [
        "iển",
        -295.0
      ],
      [
        "▁Đang",
        -296.0
      ],
      [
        "▁biết",
        -297.0
      ],
      [
        "▁quân",
        -298.0
      ],
      [
        "▁đang",
        -299.0
      ],
      [
        "▁nó",
        -300.0
      ],
      [
        "▁Kh",
        -301.0
      ],
      [
        "▁thực",
        -302.0
      ],
      [
        "▁loài",
        -303.0
      ],
      [
        "or",
        -304.0
      ],
      [
        "▁Ý",
        -305.0
      ],
      [
        "▁R",
        -306.0
      ],
      [
        "▁sẽ",
        -307.0
      ],
      [
        "▁chức",
        -308.0
      ],
      [
        "▁hàng",
        -309.0
      ],
      [
        "ấu",
        -310.0
      ],
      [
        "▁phát",
        -311.0
      ],
      [
        "ịch",
        -312.0
      ],
      [
        "▁cơ",
        -313.0
      ],
      [
        "ẫn",
        -314.0
      ],
      [
        "es",
        -315.0
      ],
      [
        "ắc",
        -316.0
      ],
      [
        "▁Mỹ",
        -317.0
      ],
      [
        "▁Công",
        -318.0
      ],
      [
        "▁ý",
        -319.0
      ],
      [
        "òn",
        -320.0
      ],
      [
        "ưở",
        -321.0
      ],
      [
        "▁tra",
        -322.0
      ],
      [
        "▁thông",
        -323.0
      ],
      [
        "ào",
        -324.0
      ],
      [
        "ưởng",
        -325.0
      ],
      [
        "▁nhận",
        -326.0
      ],
      [
        "úc",
        -327.0
      ],
      [
        "▁ả",
        -328.0
      ],
      [
        "▁thời",
        -329.0
      ],
      [
        "▁Ấ",
        -330.0
      ],
      [
        "▁theo",
        -331.0
      ],
      [
        "▁phải",
        -332.0
      ],
      [
        "▁Â",
        -333.0
      ],
      [
        "▁chỉ",
        -334.0
      ],
      [
        "el",
        -335.0
      ],
      [
        "is",
        -336.0
      ],
      [
        "▁Ủ",
        -337.0
      ],
      [
        "ồi",
        -338.0
      ],
      [
        "id",
        -339.0
      ],
      [
        "▁viên",
        -340.0
      ],
      [
        "▁U",
        -341.0
      ],
      [
        "▁tin",
        -342.0
      ],
      [
        "▁Đi",
        -343.0
      ],
      [
        "▁con",
        -344.0
      ],
      [
        "▁xu",
        -345.0
      ],
      [
        "▁lu",
        -346.0
      ],
      [
        "ôn",
        -347.0
      ],
      [
        "ợp",
        -348.0
      ],
      [
        "▁đi",
        -349.0
      ],
      [
        "▁Đề",
        -350.0
      ],
      [
        "▁xã",
        -351.0
      ],
      [
        "oại",
        -352.0
      ],
      [
        "ụng",
        -353.0
      ],
      [
        "▁cuộc",
        -354.0
      ],
      [
        "▁lượng",
        -355.0
      ],
      [
        "▁tu",
        -356.0
      ],
      [
        "ạng",
        -357.0
      ],
      [
        "▁%",
        -358.0
      ],
      [
        "▁đề",
        -359.0
      ],
      [
        "▁tỉnh",
        -360.0
      ],
      [
        "àu",
        -361.0
      ],
      [
        "▁báo",
        -362.0
      ],
      [
        "▁giữ",
        -363.0
      ],
      [
        "im",
        -364.0
      ],
      [
        "▁Nam",
        -365.0
      ],
      [
        "▁cùng",
        -366.0
      ],
      [
        "ổng",
        -367.0
      ],
      [
        "at",
        -368.0
      ],
      [
        "▁Ă",
        -369.0
      ],
      [
        "▁hợp",
        -370.0
      ],
      [
        "▁lực",
        -371.0
      ],
      [
        "iêu",
        -372.0
      ],
      [
        "òa",
        -373.0
      ],
      [
        "▁Ứ",
        -374.0
      ],
      [
        "▁Í",
        -375.0
      ],
      [
        "▁Ư",
        -376.0
      ],
      [
        "▁ủ",
        -377.0
      ],
      [
        "▁lý",
        -378.0
      ],
      [
        "▁chiến",
        -379.0
      ],
      [
        "ơi",
        -380.0
      ],
      [
        "ae",
        -381.0
      ],
      [
        "▁nhất",
        -382.0
      ],
      [
        "▁khu",
        -383.0
      ],
      [
        "▁Đại",
        -384.0
      ],
      [
        "▁Án",
        -385.0
      ],
      [
        "us",
        -386.0
      ],
      [
        "▁ô",
        -387.0
      ],
      [
        "ám",
        -388.0
      ],
      [
        "▁án",
        -389.0
      ],
      [
        "▁qua",
        -390.0
      ],
      [
        "▁sát",
        -391.0
      ],
      [
        "▁trường",
        -392.0
      ],
      [
        "▁hai",
        -393.0
      ],
      [
        "▁Đường",
        -394.0
      ],
      [
        "▁bộ",
        -395.0
      ],
      [
        "▁còn",
        -396.0
      ],
      [
        "▁nhưng",
        -397.0
      ],
      [
        "▁hình",
        -398.0
      ],
      [
        "▁thuộc",
        -399.0
      ],
      [
        "as",
        -400.0
      ],
      [
        "ửa",
        -401.0
      ],
      [
        "▁quốc",
        -402.0
      ],
      [
        "▁bắt",
        -403.0
      ],
      [
        "▁í",
        -404.0
      ],
      [
        "▁rằng",
        -405.0
      ],
      [
        "il",
        -406.0
      ],
      [
        "▁X",
        -407.0
      ],
      [
        "▁hơn",
        -408.0
      ],
      [
        "iệm",
        -409.0
      ],
      [
        "▁đường",
        -410.0
      ],
      [
        "▁thống",
        -411.0
      ],
      [
        "▁tiếp",
        -412.0
      ],
      [
        "▁thì",
        -413.0
      ],
      [
        "▁máy",
        -414.0
      ],
      [
        "▁tiên",
        -415.0
      ],
      [
        "▁dụng",
        -416.0
      ],
      [
        "▁trước",
        -417.0
      ],
      [
        "iểu",
        -418.0
      ],
      [
        "▁Gi",
        -419.0
      ],
      [
        "▁huyện",
        -420.0
      ],
      [
        "▁khác",
        -421.0
      ],
      [
        "▁vật",
        -422.0
      ],
      [
        "▁y",
        -423.0
      ],
      [
        "▁Theo",
        -424.0
      ],
      [
        "em",
        -425.0
      ],
      [
        "▁cứ",
        -426.0
      ],
      [
        "iệp",
        -427.0
      ],
      [
        "▁Nga",
        -428.0
      ],
      [
        "▁Đây",
        -429.0
      ],
      [
        "▁bay",
        -430.0
      ],
      [
        "▁Ú",
        -431.0
      ],
      [
        "▁sản",
        -432.0
      ],
      [
        "▁chủ",
        -433.0
      ],
      [
        "▁Ổ",
        -434.0
      ],
      [
        "▁E",
        -435.0
      ],
      [
        "▁ổ",
        -436.0
      ],
      [
        "▁cấp",
        -437.0
      ],
      [
        "▁khoa",
        -438.0
      ],
      [
        "▁?",
        -439.0
      ],
      [
        "▁anh",
        -440.0
      ],
      [
        "▁lớ",
        -441.0
      ],
      [
        "▁Ố",
        -442.0
      ],
      [
        "▁bố",
        -443.0
      ],
      [
        "▁cáo",
        -444.0
      ],
      [
        "▁vi",
        -445.0
      ],
      [
        "▁Độ",
        -446.0
      ],
      [
        "▁lên",
        -447.0
      ],
      [
        "▁quyền",
        -448.0
      ],
      [
        "▁chiế",
        -449.0
      ],
      [
        "▁Ẩ",
        -450.0
      ],
      [
        "▁tế",
        -451.0
      ],
      [
        "▁ẩ",
        -452.0
      ],
      [
        "▁tình",
        -453.0
      ],
      [
        "▁sinh",
        -454.0
      ],
      [
        "▁mà",
        -455.0
      ],
      [
        "▁tiền",
        -456.0
      ],
      [
        "▁phạm",
        -457.0
      ],
      [
        "▁tả",
        -458.0
      ],
      [
        "▁nói",
        -459.0
      ],
      [
        "▁pháp",
        -460.0
      ],
      [
        "▁phòng",
        -461.0
      ],
      [
        "▁Nguy",
        -462.0
      ],
      [
        "▁dự",
        -463.0
      ],
      [
        "om",
        -464.0
      ],
      [
        "ol",
        -465.0
      ],
      [
        "▁Ảnh",
        -466.0
      ],
      [
        "▁É",
        -467.0
      ],
      [
        "▁Đưa",
        -468.0
      ],
      [
        "et",
        -469.0
      ],
      [
        "▁tên",
        -470.0
      ],
      [
        "▁Nguyễn",
        -471.0
      ],
      [
        "▁ú",
        -472.0
      ],
      [
        "▁é",
        -473.0
      ],
      [
        "ệnh",
        -474.0
      ],
      [
        "▁ư",
        -475.0
      ],
      [
        "▁đưa",
        -476.0
      ],
      [
        "▁Đông",
        -477.0
      ],
      [
        "▁Địa",
        -478.0
      ],
      [
        "▁thế",
        -479.0
      ],
      [
        "▁liên",
        -480.0
      ],
      [
        "▁tới",
        -481.0
      ],
      [
        "▁F",
        -482.0
      ],
      [
        "▁chuy",
        -483.0
      ],
      [
        "▁tự",
        -484.0
      ],
      [
        "▁xuất",
        -485.0
      ],
      [
        "▁thủ",
        -486.0
      ],
      [
        "▁tàu",
        -487.0
      ],
      [
        "▁di",
        -488.0
      ],
      [
        "▁nên",
        -489.0
      ],
      [
        "▁Đội",
        -490.0
      ],
      [
        "▁Ơ",
        -491.0
      ],
      [
        "os",
        -492.0
      ],
      [
        "▁tài",
        -493.0
      ],
      [
        "▁Trong",
        -494.0
      ],
      [
        "▁trình",
        -495.0
      ],
      [
        "▁Loài",
        -496.0
      ],
      [
        "▁Hà",
        -497.0
      ],
      [
        "▁mới",
        -498.0
      ],
      [
        "▁vì",
        -499.0
      ],
      [
        "ọi",
        -500.0
      ],
      [
        "ic",
        -501.0
      ],
      [
        "▁địa",
        -502.0
      ],
      [
        "▁Việt",
        -503.0
      ],
      [
        "▁Ậ",
        -504.0
      ],
      [
        "▁vực",
        -505.0
      ],
      [
        "ồn",
        -506.0
      ],
      [
        "▁ấ",
        -507.0
      ],
      [
        "▁ố",
        -508.0
      ],
      [
        "▁Ồ",
        -509.0
      ],
      [
        "ảy",
        -510.0
      ],
      [
        "▁Ê",
        -511.0
      ],
      [
        "▁sử",
        -512.0
      ],
      [
        "▁Ù",
        -513.0
      ],
      [
        "▁ù",
        -514.0
      ],
      [
        "▁À",
        -515.0
      ],
      [
        "▁Ế",
        -516.0
      ],
      [
        "óng",
        -517.0
      ],
      [
        "▁ế",
        -518.0
      ],
      [
        "▁Ớ",
        -519.0
      ],
      [
        "ướng",
        -520.0
      ],
      [
        "▁Ó",
        -521.0
      ],
      [
        "▁ớ",
        -522.0
      ],
      [
        "▁năng",
        -523.0
      ],
      [
        "▁Ạ",
        -524.0
      ],
      [
        "▁bà",
        -525.0
      ],
      [
        "▁ó",
        -526.0
      ],
      [
        "▁ê",
        -527.0
      ],
      [
        "▁Ầ",
        -528.0
      ],
      [
        "▁ầ",
        -529.0
      ],
      [
        "▁ơ",
        -530.0
      ],
      [
        "▁Ắ",
        -531.0
      ],
      [
        "▁ồ",
        -532.0
      ],
      [
        "▁à",
        -533.0
      ],
      [
        "▁Ỏ",
        -534.0
      ],
      [
        "ừa",
        -535.0
      ],
      [
        "▁ỏ",
        -536.0
      ],
      [
        "▁á",
        -537.0
      ],
      [
        "▁ạ",
        -538.0
      ],
      [
        "▁Ụ",
        -539.0
      ],
      [
        "▁ứ",
        -540.0
      ],
      [
        "▁Ỉ",
        -541.0
      ],
      [
        "▁ỉ",
        -542.0
      ],
      [
        "▁ụ",
        -543.0
      ],
      [
        "ra",
        -544.0
      ],
      [
        "▁Ĩ",
        -545.0
      ],
      [
        "▁ĩ",
        -546.0
      ],
      [
        "▁Ò",
        -547.0
      ],
      [
        "▁Ỷ",
        -548.0
      ],
      [
        "▁ắ",
        -549.0
      ],
      [
        "▁Ì",
        -550.0
      ],
      [
        "▁Điểm",
        -551.0
      ],
      [
        "▁ì",
        -552.0
      ],
      [
        "ọng",
        -553.0
      ],
      [
        "ởi",
        -554.0
      ],
      [
        "▁Ờ",
        -555.0
      ],
      [
        "▁ờ",
        -556.0
      ],
      [
        "▁Ẵ",
        -557.0
      ],
      [
        "▁ẵ",
        -558.0
      ],
      [
        "▁ỷ",
        -559.0
      ],
      [
        "▁Ỳ",
        -560.0
      ],
      [
        "▁ỳ",
        -561.0
      ],
      [
        "▁Ọ",
        -562.0
      ],
      [
        "▁Ừ",
        -563.0
      ],
      [
        "▁È",
        -564.0
      ],
      [
        "▁Ử",
        -565.0
      ],
      [
        "▁ọ",
        -566.0
      ],
      [
        "▁Ộ",
        -567.0
      ],
      [
        "▁è",
        -568.0
      ],
      [
        "▁Ẹ",
        -569.0
      ],
      [
        "▁Ã",
        -570.0
      ],
      [
        "▁ã",
        -571.0
      ],
      [
        "▁ẹ",
        -572.0
      ],
      [
        "▁ừ",
        -573.0
      ],
      [
        "▁ử",
        -574.0
      ],
      [
        "▁ậ",
        -575.0
      ],
      [
        "▁Ị",
        -576.0
      ],
      [
        "▁Ề",
        -577.0
      ],
      [
        "▁Ợ",
        -578.0
      ],
      [
        "▁ợ",
        -579.0
      ],
      [
        "▁ề",
        -580.0
      ],
      [
        "▁â",
        -581.0
      ],
      [
        "▁ộ",
        -582.0
      ],
      [
        "▁Ự",
        -583.0
      ],
      [
        "▁Ỹ",
        -584.0
      ],
      [
        "▁ị",
        -585.0
      ],
      [
        "▁Ẻ",
        -586.0
      ],
      [
        "▁Ệ",
        -587.0
      ],
      [
        "▁ỹ",
        -588.0
      ],
      [
        "▁Ể",
        -589.0
      ],
      [
        "▁Ẳ",
        -590.0
      ],
      [
        "▁ệ",
        -591.0
      ],
      [
        "▁giới",
        -592.0
      ],
      [
        "▁ẻ",
        -593.0
      ],
      [
        "▁ự",
        -594.0
      ],
      [
        "▁ể",
        -595.0
      ],
      [
        "▁Ỡ",
        -596.0
      ],
      [
        "▁ỡ",
        -597.0
      ],
      [
        "▁ò",
        -598.0
      ],
      [
        "▁Ũ",
        -599.0
      ],
      [
        "▁ă",
        -600.0
      ],
      [
        "▁Õ",
        -601.0
      ],
      [
        "▁Ẫ",
        -602.0
      ],
      [
        "▁Ễ",
        -603.0
      ],
      [
        "▁Ỗ",
        -604.0
      ],
      [
        "▁ỗ",
        -605.0
      ],
      [
        "▁Ữ",
        -606.0
      ],
      [
        "▁Ặ",
        -607.0
      ],
      [
        "▁ẳ",
        -608.0
      ],
      [
        "▁ữ",
        -609.0
      ],
      [
        "▁õ",
        -610.0
      ],
      [
        "▁Ằ",
        -611.0
      ],
      [
        "▁Ẽ",
        -612.0
      ],
      [
        "▁ẽ",
        -613.0
      ],
      [
        "▁ễ",
        -614.0
      ],
      [
        "▁ũ",
        -615.0
      ],
      [
        "▁Ỵ",
        -616.0
      ],
      [
        "▁ẫ",
        -617.0
      ],
      [
        "▁ặ",
        -618.0
      ],
      [
        "▁ằ",
        -619.0
      ],
      [
        "▁ỵ",
        -620.0
      ],
      [
        "▁hội",
        -621.0
      ],
      [
        "▁TP",
        -622.0
      ],
      [
        "ạnh",
        -623.0
      ],
      [
        "▁J",
        -624.0
      ],
      [
        "▁thị",
        -625.0
      ],
      [
        "▁tượng",
        -626.0
      ],
      [
        "ảm",
        -627.0
      ],
      [
        "▁cách",
        -628.0
      ],
      [
        "▁điểm",
        -629.0
      ],
      [
        "▁kết",
        -630.0
      ],
      [
        "▁tuổi",
        -631.0
      ],
      [
        "ốn",
        -632.0
      ],
      [
        "▁phí",
        -633.0
      ],
      [
        "ển",
        -634.0
      ],
      [
        "▁lớn",
        -635.0
      ],
      [
        "▁mu",
        -636.0
      ],
      [
        "óa",
        -637.0
      ],
      [
        "▁Y",
        -638.0
      ],
      [
        "▁đây",
        -639.0
      ],
      [
        "▁tác",
        -640.0
      ],
      [
        "it",
        -641.0
      ],
      [
        "ắn",
        -642.0
      ],
      [
        "ạc",
        -643.0
      ],
      [
        "▁cao",
        -644.0
      ],
      [
        "▁Đình",
        -645.0
      ],
      [
        "▁quyết",
        -646.0
      ],
      [
        "▁lập",
        -647.0
      ],
      [
        "▁mình",
        -648.0
      ],
      [
        "▁Văn",
        -649.0
      ],
      [
        "▁Đạo",
        -650.0
      ],
      [
        "ầm",
        -651.0
      ],
      [
        "▁tổ",
        -652.0
      ],
      [
        "▁Bộ",
        -653.0
      ],
      [
        "▁bản",
        -654.0
      ],
      [
        "ẩm",
        -655.0
      ],
      [
        "▁giải",
        -656.0
      ],
      [
        "▁Đánh",
        -657.0
      ],
      [
        "oạn",
        -658.0
      ],
      [
        "▁nhiên",
        -659.0
      ],
      [
        "▁thấy",
        -660.0
      ],
      [
        "▁O",
        -661.0
      ],
      [
        "▁cầu",
        -662.0
      ],
      [
        "ậu",
        -663.0
      ],
      [
        "▁vị",
        -664.0
      ],
      [
        "▁phương",
        -665.0
      ],
      [
        "▁vẫn",
        -666.0
      ],
      [
        "▁đội",
        -667.0
      ],
      [
        "▁tôi",
        -668.0
      ],
      [
        "ằm",
        -669.0
      ],
      [
        "▁đánh",
        -670.0
      ],
      [
        "▁thường",
        -671.0
      ],
      [
        "▁giao",
        -672.0
      ],
      [
        "▁khoảng",
        -673.0
      ],
      [
        "▁W",
        -674.0
      ],
      [
        "▁xử",
        -675.0
      ],
      [
        "▁đạo",
        -676.0
      ],
      [
        "▁Anh",
        -677.0
      ],
      [
        "▁nữ",
        -678.0
      ],
      [
        "▁cảnh",
        -679.0
      ],
      [
        "▁bảo",
        -680.0
      ],
      [
        "ur",
        -681.0
      ],
      [
        "▁tố",
        -682.0
      ],
      [
        "ếu",
        -683.0
      ],
      [
        "▁phố",
        -684.0
      ],
      [
        "óm",
        -685.0
      ],
      [
        "idae",
        -686.0
      ],
      [
        "▁toàn",
        -687.0
      ],
      [
        "▁Bình",
        -688.0
      ],
      [
        "ad",
        -689.0
      ],
      [
        "▁nạn",
        -690.0
      ],
      [
        "▁bu",
        -691.0
      ],
      [
        "▁Tổng",
        -692.0
      ],
      [
        "▁thương",
        -693.0
      ],
      [
        "▁Sau",
        -694.0
      ],
      [
        "▁chị",
        -695.0
      ],
      [
        "▁khai",
        -696.0
      ],
      [
        "▁hệ",
        -697.0
      ],
      [
        "▁bằng",
        -698.0
      ],
      [
        "▁trưởng",
        -699.0
      ],
      [
        "▁&",
        -700.0
      ],
      [
        "▁độ",
        -701.0
      ],
      [
        "ìm",
        -702.0
      ],
      [
        "▁An",
        -703.0
      ],
      [
        "▁Điện",
        -704.0
      ],
      [
        "▁kiểm",
        -705.0
      ],
      [
        "hi",
        -706.0
      ],
      [
        "▁luật",
        -707.0
      ],
      [
        "um",
        -708.0
      ],
      [
        "ét",
        -709.0
      ],
      [
        "▁truy",
        -710.0
      ],
      [
        "▁nay",
        -711.0
      ],
      [
        "▁cứu",
        -712.0
      ],
      [
        "▁mặt",
        -713.0
      ],
      [
        "▁đại",
        -714.0
      ],
      [
        "▁gây",
        -715.0
      ],
      [
        "▁gần",
        -716.0
      ],
      [
        "▁chuyển",
        -717.0
      ],
      [
        "▁đình",
        -718.0
      ],
      [
        "▁tục",
        -719.0
      ],
      [
        "ac",
        -720.0
      ],
      [
        "ừng",
        -721.0
      ],
      [
        "▁tội",
        -722.0
      ],
      [
        "▁rất",
        -723.0
      ],
      [
        "▁bán",
        -724.0
      ],
      [
        "▁mô",
        -725.0
      ],
      [
        "▁tham",
        -726.0
      ],
      [
        "▁Đất",
        -727.0
      ],
      [
        "▁xác",
        -728.0
      ],
      [
        "▁phần",
        -729.0
      ],
      [
        "▁lần",
        -730.0
      ],
      [
        "ạch",
        -731.0
      ],
      [
        "▁nhiệm",
        -732.0
      ],
      [
        "▁phía",
        -733.0
      ],
      [
        "▁trở",
        -734.0
      ],
      [
        "▁chúng",
        -735.0
      ],
      [
        "▁thứ",
        -736.0
      ],
      [
        "ắng",
        -737.0
      ],
      [
        "▁Đơn",
        -738.0
      ],
      [
        "▁kinh",
        -739.0
      ],
      [
        "▁biển",
        -740.0
      ],
      [
        "ọc",
        -741.0
      ],
      [
        "▁bất",
        -742.0
      ],
      [
        "▁chưa",
        -743.0
      ],
      [
        "▁trị",
        -744.0
      ],
      [
        "▁xảy",
        -745.0
      ],
      [
        "▁tử",
        -746.0
      ],
      [
        "▁điện",
        -747.0
      ],
      [
        "ỏi",
        -748.0
      ],
      [
        "▁lã",
        -749.0
      ],
      [
        "▁nghi",
        -750.0
      ],
      [
        "ne",
        -751.0
      ],
      [
        "▁Các",
        -752.0
      ],
      [
        "▁đơn",
        -753.0
      ],
      [
        "▁tìm",
        -754.0
      ],
      [
        "▁hoạt",
        -755.0
      ],
      [
        "▁ty",
        -756.0
      ],
      [
        "▁Tuy",
        -757.0
      ],
      [
        "▁tích",
        -758.0
      ],
      [
        "▁đất",
        -759.0
      ],
      [
        "▁hay",
        -760.0
      ],
      [
        "▁Ho",
        -761.0
      ],
      [
        "▁khách",
        -762.0
      ],
      [
        "ẳng",
        -763.0
      ],
      [
        "▁triệu",
        -764.0
      ],
      [
        "oàng",
        -765.0
      ],
      [
        "▁diễn",
        -766.0
      ],
      [
        "▁tranh",
        -767.0
      ],
      [
        "▁Đoàn",
        -768.0
      ],
      [
        "▁tiến",
        -769.0
      ],
      [
        "▁Đức",
        -770.0
      ],
      [
        "▁giá",
        -771.0
      ],
      [
        "▁Hải",
        -772.0
      ],
      [
        "ép",
        -773.0
      ],
      [
        "▁quả",
        -774.0
      ],
      [
        "▁tập",
        -775.0
      ],
      [
        "ưng",
        -776.0
      ],
      [
        "▁phủ",
        -777.0
      ],
      [
        "▁gian",
        -778.0
      ],
      [
        "▁tính",
        -779.0
      ],
      [
        "▁bỏ",
        -780.0
      ],
      [
        "▁tâm",
        -781.0
      ],
      [
        "▁trọng",
        -782.0
      ],
      [
        "▁giữa",
        -783.0
      ],
      [
        "▁tiếng",
        -784.0
      ],
      [
        "▁sống",
        -785.0
      ],
      [
        "▁gọi",
        -786.0
      ],
      [
        "▁bên",
        -787.0
      ],
      [
        "▁hoa",
        -788.0
      ],
      [
        "▁trung",
        -789.0
      ],
      [
        "▁ảnh",
        -790.0
      ],
      [
        "▁Thanh",
        -791.0
      ],
      [
        "▁tấn",
        -792.0
      ],
      [
        "▁sở",
        -793.0
      ],
      [
        "ợi",
        -794.0
      ],
      [
        "▁nghiệp",
        -795.0
      ],
      [
        "▁hoặc",
        -796.0
      ],
      [
        "▁vùng",
        -797.0
      ],
      [
        "▁Nội",
        -798.0
      ],
      [
        "▁chiếc",
        -799.0
      ],
      [
        "ND",
        -800.0
      ],
      [
        "iếu",
        -801.0
      ],
      [
        "ậy",
        -802.0
      ],
      [
        "▁sĩ",
        -803.0
      ],
      [
        "▁loại",
        -804.0
      ],
      [
        "▁tăng",
        -805.0
      ],
      [
        "▁khí",
        -806.0
      ],
      [
        "▁viện",
        -807.0
      ],
      [
        "▁hộ",
        -808.0
      ],
      [
        "ter",
        -809.0
      ],
      [
        "▁quận",
        -810.0
      ],
      [
        "▁thức",
        -811.0
      ],
      [
        "▁diện",
        -812.0
      ],
      [
        "ồm",
        -813.0
      ],
      [
        "▁ban",
        -814.0
      ],
      [
        "▁dư",
        -815.0
      ],
      [
        "▁nhóm",
        -816.0
      ],
      [
        "út",
        -817.0
      ],
      [
        "▁hiệu",
        -818.0
      ],
      [
        "▁mạng",
        -819.0
      ],
      [
        "▁giờ",
        -820.0
      ],
      [
        "▁chế",
        -821.0
      ],
      [
        "▁gồm",
        -822.0
      ],
      [
        "ĩa",
        -823.0
      ],
      [
        "ak",
        -824.0
      ],
      [
        "áu",
        -825.0
      ],
      [
        "▁Một",
        -826.0
      ],
      [
        "▁chết",
        -827.0
      ],
      [
        "ro",
        -828.0
      ],
      [
        "▁ngoài",
        -829.0
      ],
      [
        "▁vấn",
        -830.0
      ],
      [
        "un",
        -831.0
      ],
      [
        "▁lời",
        -832.0
      ],
      [
        "▁rõ",
        -833.0
      ],
      [
        "▁hóa",
        -834.0
      ],
      [
        "▁lãnh",
        -835.0
      ],
      [
        "▁Bắc",
        -836.0
      ],
      [
        "▁nguyên",
        -837.0
      ],
      [
        "▁nơi",
        -838.0
      ],
      [
        "▁tiêu",
        -839.0
      ],
      [
        "▁nghị",
        -840.0
      ],
      [
        "▁vệ",
        -841.0
      ],
      [
        "▁bao",
        -842.0
      ],
      [
        "▁cô",
        -843.0
      ],
      [
        "▁nào",
        -844.0
      ],
      [
        "ưu",
        -845.0
      ],
      [
        "ỗi",
        -846.0
      ],
      [
        "▁Ngày",
        -847.0
      ],
      [
        "ul",
        -848.0
      ],
      [
        "▁Nhật",
        -849.0
      ],
      [
        "▁dùng",
        -850.0
      ],
      [
        "▁giáo",
        -851.0
      ],
      [
        "ẩn",
        -852.0
      ],
      [
        "▁Đảo",
        -853.0
      ],
      [
        "▁đoàn",
        -854.0
      ],
      [
        "▁bởi",
        -855.0
      ],
      [
        "ốt",
        -856.0
      ],
      [
        "▁yêu",
        -857.0
      ],
      [
        "▁dẫn",
        -858.0
      ],
      [
        "▁minh",
        -859.0
      ],
      [
        "▁tư",
        -860.0
      ],
      [
        "▁Đặc",
        -861.0
      ],
      [
        "▁khiến",
        -862.0
      ],
      [
        "▁triển",
        -863.0
      ],
      [
        "▁biểu",
        -864.0
      ],
      [
        "▁thi",
        -865.0
      ],
      [
        "▁Đổi",
        -866.0
      ],
      [
        "▁tạo",
        -867.0
      ],
      [
        "▁chống",
        -868.0
      ],
      [
        "▁phân",
        -869.0
      ],
      [
        "ĩnh",
        -870.0
      ],
      [
        "▁Đấu",
        -871.0
      ],
      [
        "ạy",
        -872.0
      ],
      [
        "ôm",
        -873.0
      ],
      [
        "▁quá",
        -874.0
      ],
      [
        "▁đổi",
        -875.0
      ],
      [
        "▁bình",
        -876.0
      ],
      [
        "▁chứng",
        -877.0
      ],
      [
        "▁Đô",
        -878.0
      ],
      [
        "▁Kỳ",
        -879.0
      ],
      [
        "▁chi",
        -880.0
      ],
      [
        "▁sáng",
        -881.0
      ],
      [
        "▁đảo",
        -882.0
      ],
      [
        "▁mang",
        -883.0
      ],
      [
        "le",
        -884.0
      ],
      [
        "▁Thị",
        -885.0
      ],
      [
        "▁Liên",
        -886.0
      ],
      [
        "▁đấu",
        -887.0
      ],
      [
        "▁lửa",
        -888.0
      ],
      [
        "▁tuyên",
        -889.0
      ],
      [
        "▁Tây",
        -890.0
      ],
      [
        "▁em",
        -891.0
      ],
      [
        "▁thanh",
        -892.0
      ],
      [
        "▁chất",
        -893.0
      ],
      [
        "▁bệnh",
        -894.0
      ],
      [
        "▁ta",
        -895.0
      ],
      [
        "and",
        -896.0
      ],
      [
        "▁nhau",
        -897.0
      ],
      [
        "▁vừa",
        -898.0
      ],
      [
        "▁Thủ",
        -899.0
      ],
      [
        "▁tướng",
        -900.0
      ],
      [
        "▁Đều",
        -901.0
      ],
      [
        "▁so",
        -902.0
      ],
      [
        "▁đều",
        -903.0
      ],
      [
        "▁thân",
        -904.0
      ],
      [
        "▁Thái",
        -905.0
      ],
      [
        "oạt",
        -906.0
      ],
      [
        "▁cá",
        -907.0
      ],
      [
        "ip",
        -908.0
      ],
      [
        "uồn",
        -909.0
      ],
      [
        "▁cần",
        -910.0
      ],
      [
        "▁mua",
        -911.0
      ],
      [
        "▁tòa",
        -912.0
      ],
      [
        "▁lúc",
        -913.0
      ],
      [
        "▁Sơn",
        -914.0
      ],
      [
        "àm",
        -915.0
      ],
      [
        "▁mất",
        -916.0
      ],
      [
        "▁tay",
        -917.0
      ],
      [
        "▁phép",
        -918.0
      ],
      [
        "▁trang",
        -919.0
      ],
      [
        "ot",
        -920.0
      ],
      [
        "▁Hoa",
        -921.0
      ],
      [
        "yr",
        -922.0
      ],
      [
        "▁Pháp",
        -923.0
      ],
      [
        "▁phụ",
        -924.0
      ],
      [
        "▁thiết",
        -925.0
      ],
      [
        "▁vũ",
        -926.0
      ],
      [
        "▁nhập",
        -927.0
      ],
      [
        "re",
        -928.0
      ],
      [
        "▁trả",
        -929.0
      ],
      [
        "▁tuy",
        -930.0
      ],
      [
        "▁đặc",
        -931.0
      ],
      [
        "▁Dương",
        -932.0
      ],
      [
        "▁Năm",
        -933.0
      ],
      [
        "ầy",
        -934.0
      ],
      [
        "▁bàn",
        -935.0
      ],
      [
        "▁miêu",
        -936.0
      ],
      [
        "ing",
        -937.0
      ],
      [
        "▁rồi",
        -938.0
      ],
      [
        "▁biệt",
        -939.0
      ],
      [
        "▁xét",
        -940.0
      ],
      [
        "ặp",
        -941.0
      ],
      [
        "▁văn",
        -942.0
      ],
      [
        "▁Đêm",
        -943.0
      ],
      [
        "▁tịch",
        -944.0
      ],
      [
        "ặng",
        -945.0
      ],
      [
        "▁kế",
        -946.0
      ],
      [
        "ag",
        -947.0
      ],
      [
        "▁dịch",
        -948.0
      ],
      [
        "▁mạnh",
        -949.0
      ],
      [
        "▁luận",
        -950.0
      ],
      [
        "▁truyền",
        -951.0
      ],
      [
        "▁tổng",
        -952.0
      ],
      [
        "ứa",
        -953.0
      ],
      [
        "▁ký",
        -954.0
      ],
      [
        "▁phạt",
        -955.0
      ],
      [
        "▁Minh",
        -956.0
      ],
      [
        "rai",
        -957.0
      ],
      [
        "ut",
        -958.0
      ],
      [
        "▁phẩm",
        -959.0
      ],
      [
        "▁Ngh",
        -960.0
      ],
      [
        "▁Hoàng",
        -961.0
      ],
      [
        "▁vợ",
        -962.0
      ],
      [
        "op",
        -963.0
      ],
      [
        "▁tú",
        -964.0
      ],
      [
        "▁đêm",
        -965.0
      ],
      [
        "▁Ăn",
        -966.0
      ],
      [
        "ắp",
        -967.0
      ],
      [
        "ọn",
        -968.0
      ],
      [
        "▁cử",
        -969.0
      ],
      [
        "ỏa",
        -970.0
      ],
      [
        "▁ăn",
        -971.0
      ],
      [
        "▁doanh",
        -972.0
      ],
      [
        "▁trợ",
        -973.0
      ],
      [
        "▁Bản",
        -974.0
      ],
      [
        "▁hại",
        -975.0
      ],
      [
        "▁thêm",
        -976.0
      ],
      [
        "▁chu",
        -977.0
      ],
      [
        "▁danh",
        -978.0
      ],
      [
        "▁chạy",
        -979.0
      ],
      [
        "ed",
        -980.0
      ],
      [
        "▁cháy",
        -981.0
      ],
      [
        "ran",
        -982.0
      ],
      [
        "▁sách",
        -983.0
      ],
      [
        "▁sơ",
        -984.0
      ],
      [
        "▁vận",
        -985.0
      ],
      [
        "▁chí",
        -986.0
      ],
      [
        "ov",
        -987.0
      ],
      [
        "▁gái",
        -988.0
      ],
      [
        "▁cửa",
        -989.0
      ],
      [
        "▁cánh",
        -990.0
      ],
      [
        "ir",
        -991.0
      ],
      [
        "ấm",
        -992.0
      ],
      [
        "▁châu",
        -993.0
      ],
      [
        "ảnh",
        -994.0
      ],
      [
        "▁Trước",
        -995.0
      ],
      [
        "▁phản",
        -996.0
      ],
      [
        "▁cư",
        -997.0
      ],
      [
        "▁cố",
        -998.0
      ],
      [
        "▁phường",
        -999.0
      ],
      [
        "▁đô",
        -1000.0
      ],
      [
        "▁tỷ",
        -1001.0
      ],
      [
        "▁lấy",
        -1002.0
      ],
      [
        "▁nằm",
        -1003.0
      ],
      [
        "▁Thành",
        -1004.0
      ],
      [
        "▁nhằm",
        -1005.0
      ],
      [
        "▁tù",
        -1006.0
      ],
      [
        "▁Đốc",
        -1007.0
      ],
      [
        "▁phục",
        -1008.0
      ],
      [
        "▁từng",
        -1009.0
      ],
      [
        "▁kiến",
        -1010.0
      ],
      [
        "▁liệu",
        -1011.0
      ],
      [
        "▁Uk",
        -1012.0
      ],
      [
        "▁khó",
        -1013.0
      ],
      [
        "▁xuống",
        -1014.0
      ],
      [
        "▁dài",
        -1015.0
      ],
      [
        "▁>",
        -1016.0
      ],
      [
        "▁hoàn",
        -1017.0
      ],
      [
        "▁Khi",
        -1018.0
      ],
      [
        "ãi",
        -1019.0
      ],
      [
        "▁Ukrai",
        -1020.0
      ],
      [
        "▁ma",
        -1021.0
      ],
      [
        "▁Đặt",
        -1022.0
      ],
      [
        "▁Lan",
        -1023.0
      ],
      [
        "▁vậy",
        -1024.0
      ],
      [
        "ạp",
        -1025.0
      ],
      [
        "▁trận",
        -1026.0
      ],
      [
        "▁trí",
        -1027.0
      ],
      [
        "▁đặt",
        -1028.0
      ],
      [
        "▁đốc",
        -1029.0
      ],
      [
        "▁dưới",
        -1030.0
      ],
      [
        "▁quản",
        -1031.0
      ],
      [
        "▁nam",
        -1032.0
      ],
      [
        "▁mục",
        -1033.0
      ],
      [
        "▁km",
        -1034.0
      ],
      [
        "▁Ứng",
        -1035.0
      ],
      [
        "▁dựng",
        -1036.0
      ],
      [
        "úp",
        -1037.0
      ],
      [
        "▁Trần",
        -1038.0
      ],
      [
        "▁trực",
        -1039.0
      ],
      [
        "▁trú",
        -1040.0
      ],
      [
        "▁kiện",
        -1041.0
      ],
      [
        "▁hôm",
        -1042.0
      ],
      [
        "▁trách",
        -1043.0
      ],
      [
        "▁Chủ",
        -1044.0
      ],
      [
        "▁cuối",
        -1045.0
      ],
      [
        "▁niên",
        -1046.0
      ],
      [
        "▁kỳ",
        -1047.0
      ],
      [
        "▁biến",
        -1048.0
      ],
      [
        "od",
        -1049.0
      ],
      [
        "▁kể",
        -1050.0
      ],
      [
        "▁Ủy",
        -1051.0
      ],
      [
        "yria",
        -1052.0
      ],
      [
        "▁ba",
        -1053.0
      ],
      [
        "▁Đảng",
        -1054.0
      ],
      [
        "▁thay",
        -1055.0
      ],
      [
        "▁ứng",
        -1056.0
      ],
      [
        "▁hòa",
        -1057.0
      ],
      [
        "▁trái",
        -1058.0
      ],
      [
        "▁Syria",
        -1059.0
      ],
      [
        "▁nguồn",
        -1060.0
      ],
      [
        "ẩy",
        -1061.0
      ],
      [
        "▁chấp",
        -1062.0
      ],
      [
        "▁mở",
        -1063.0
      ],
      [
        "▁Đá",
        -1064.0
      ],
      [
        "▁Chính",
        -1065.0
      ],
      [
        "ủng",
        -1066.0
      ],
      [
        "▁Người",
        -1067.0
      ],
      [
        "▁chung",
        -1068.0
      ],
      [
        "ig",
        -1069.0
      ],
      [
        "▁Lê",
        -1070.0
      ],
      [
        "▁gặp",
        -1071.0
      ],
      [
        "ua",
        -1072.0
      ],
      [
        "▁p",
        -1073.0
      ],
      [
        "▁!",
        -1074.0
      ],
      [
        "▁Tân",
        -1075.0
      ],
      [
        "▁khỏi",
        -1076.0
      ],
      [
        "▁gì",
        -1077.0
      ],
      [
        "ẩu",
        -1078.0
      ],
      [
        "▁xây",
        -1079.0
      ],
      [
        "▁Nhà",
        -1080.0
      ],
      [
        "▁tuần",
        -1081.0
      ],
      [
        "▁phá",
        -1082.0
      ],
      [
        "▁trạng",
        -1083.0
      ],
      [
        "▁Đóng",
        -1084.0
      ],
      [
        "▁Đoạn",
        -1085.0
      ],
      [
        "▁Tiên",
        -1086.0
      ],
      [
        "▁đá",
        -1087.0
      ],
      [
        "▁đóng",
        -1088.0
      ],
      [
        "▁nếu",
        -1089.0
      ],
      [
        "▁biên",
        -1090.0
      ],
      [
        "▁lợi",
        -1091.0
      ],
      [
        "▁sức",
        -1092.0
      ],
      [
        "▁Ấn",
        -1093.0
      ],
      [
        "▁xem",
        -1094.0
      ],
      [
        "oc",
        -1095.0
      ],
      [
        "▁nội",
        -1096.0
      ],
      [
        "▁bang",
        -1097.0
      ],
      [
        "▁chiếm",
        -1098.0
      ],
      [
        "▁Hòa",
        -1099.0
      ],
      [
        "▁dù",
        -1100.0
      ],
      [
        "▁giả",
        -1101.0
      ],
      [
        "▁Tại",
        -1102.0
      ],
      [
        "ắm",
        -1103.0
      ],
      [
        "▁hồ",
        -1104.0
      ],
      [
        "▁binh",
        -1105.0
      ],
      [
        "uân",
        -1106.0
      ],
      [
        "▁khủng",
        -1107.0
      ],
      [
        "▁trẻ",
        -1108.0
      ],
      [
        "CM",
        -1109.0
      ],
      [
        "▁bạn",
        -1110.0
      ],
      [
        "▁lịch",
        -1111.0
      ],
      [
        "▁chuyên",
        -1112.0
      ],
      [
        "▁Ukraine",
        -1113.0
      ],
      [
        "▁]",
        -1114.0
      ],
      [
        "oán",
        -1115.0
      ],
      [
        "▁hết",
        -1116.0
      ],
      [
        "▁giám",
        -1117.0
      ],
      [
        "òi",
        -1118.0
      ],
      [
        "▁mẹ",
        -1119.0
      ],
      [
        "▁sang",
        -1120.0
      ],
      [
        "▁ninh",
        -1121.0
      ],
      [
        "▁chồng",
        -1122.0
      ],
      [
        "av",
        -1123.0
      ],
      [
        "ab",
        -1124.0
      ],
      [
        "▁Long",
        -1125.0
      ],
      [
        "▁buộc",
        -1126.0
      ],
      [
        "▁chữ",
        -1127.0
      ],
      [
        "▁đoạn",
        -1128.0
      ],
      [
        "▁Đa",
        -1129.0
      ],
      [
        "▁ngay",
        -1130.0
      ],
      [
        "iếm",
        -1131.0
      ],
      [
        "▁súng",
        -1132.0
      ],
      [
        "▁UB",
        -1133.0
      ],
      [
        "▁cung",
        -1134.0
      ],
      [
        "▁đông",
        -1135.0
      ],
      [
        "▁nhỏ",
        -1136.0
      ],
      [
        "th",
        -1137.0
      ],
      [
        "▁bé",
        -1138.0
      ],
      [
        "ữu",
        -1139.0
      ],
      [
        "▁Al",
        -1140.0
      ],
      [
        "▁miền",
        -1141.0
      ],
      [
        "▁nghĩa",
        -1142.0
      ],
      [
        "▁giúp",
        -1143.0
      ],
      [
        "▁hạn",
        -1144.0
      ],
      [
        "▁muốn",
        -1145.0
      ],
      [
        "▁khả",
        -1146.0
      ],
      [
        "▁nổi",
        -1147.0
      ],
      [
        "▁Cảnh",
        -1148.0
      ],
      [
        "ok",
        -1149.0
      ],
      [
        "▁túy",
        -1150.0
      ],
      [
        "▁Triều",
        -1151.0
      ],
      [
        "▁SN",
        -1152.0
      ],
      [
        "ap",
        -1153.0
      ],
      [
        "▁tương",
        -1154.0
      ],
      [
        "ist",
        -1155.0
      ],
      [
        "óc",
        -1156.0
      ],
      [
        "▁sư",
        -1157.0
      ],
      [
        "▁Quảng",
        -1158.0
      ],
      [
        "▁Ban",
        -1159.0
      ],
      [
        "▁[",
        -1160.0
      ],
      [
        "ùa",
        -1161.0
      ],
      [
        "▁ké",
        -1162.0
      ],
      [
        "ìn",
        -1163.0
      ],
      [
        "▁Lu",
        -1164.0
      ],
      [
        "▁Phó",
        -1165.0
      ],
      [
        "▁nổ",
        -1166.0
      ],
      [
        "▁Ne",
        -1167.0
      ],
      [
        "▁UBND",
        -1168.0
      ],
      [
        "▁Những",
        -1169.0
      ],
      [
        "▁thiệt",
        -1170.0
      ],
      [
        "ton",
        -1171.0
      ],
      [
        "▁phóng",
        -1172.0
      ],
      [
        "▁bắn",
        -1173.0
      ],
      [
        "ri",
        -1174.0
      ],
      [
        "oan",
        -1175.0
      ],
      [
        "▁phiên",
        -1176.0
      ],
      [
        "▁Thu",
        -1177.0
      ],
      [
        "▁Hội",
        -1178.0
      ],
      [
        "▁sân",
        -1179.0
      ],
      [
        "▁cháu",
        -1180.0
      ],
      [
        "▁hướng",
        -1181.0
      ],
      [
        "▁thuật",
        -1182.0
      ],
      [
        "▁hậu",
        -1183.0
      ],
      [
        "▁ngoại",
        -1184.0
      ],
      [
        "▁căn",
        -1185.0
      ],
      [
        "▁hồi",
        -1186.0
      ],
      [
        "▁Đàn",
        -1187.0
      ],
      [
        "▁St",
        -1188.0
      ],
      [
        "▁thẩm",
        -1189.0
      ],
      [
        "▁khởi",
        -1190.0
      ],
      [
        "▁Ít",
        -1191.0
      ],
      [
        "▁lệnh",
        -1192.0
      ],
      [
        "▁huy",
        -1193.0
      ],
      [
        "ev",
        -1194.0
      ],
      [
        "▁trai",
        -1195.0
      ],
      [
        "oi",
        -1196.0
      ],
      [
        "▁kích",
        -1197.0
      ],
      [
        "▁bài",
        -1198.0
      ],
      [
        "▁su",
        -1199.0
      ],
      [
        "▁tất",
        -1200.0
      ],
      [
        "ửi",
        -1201.0
      ],
      [
        "▁cái",
        -1202.0
      ],
      [
        "▁Do",
        -1203.0
      ],
      [
        "▁chơi",
        -1204.0
      ],
      [
        "▁tạm",
        -1205.0
      ],
      [
        "uấn",
        -1206.0
      ],
      [
        "▁cổ",
        -1207.0
      ],
      [
        "▁Phòng",
        -1208.0
      ],
      [
        "▁can",
        -1209.0
      ],
      [
        "êng",
        -1210.0
      ],
      [
        "▁Đạt",
        -1211.0
      ],
      [
        "▁Hiện",
        -1212.0
      ],
      [
        "▁hưởng",
        -1213.0
      ],
      [
        "▁mọi",
        -1214.0
      ],
      [
        "▁hạt",
        -1215.0
      ],
      [
        "▁Đứng",
        -1216.0
      ],
      [
        "▁Âu",
        -1217.0
      ],
      [
        "▁tinh",
        -1218.0
      ],
      [
        "▁phim",
        -1219.0
      ],
      [
        "▁thoại",
        -1220.0
      ],
      [
        "▁Đăng",
        -1221.0
      ],
      [
        "▁mức",
        -1222.0
      ],
      [
        "▁rộng",
        -1223.0
      ],
      [
        "▁nghiêm",
        -1224.0
      ],
      [
        "▁tải",
        -1225.0
      ],
      [
        "▁tối",
        -1226.0
      ],
      [
        "▁ghi",
        -1227.0
      ],
      [
        "▁lộ",
        -1228.0
      ],
      [
        "▁đàn",
        -1229.0
      ],
      [
        "▁đứng",
        -1230.0
      ],
      [
        "▁yếu",
        -1231.0
      ],
      [
        "uổi",
        -1232.0
      ],
      [
        "▁Hàn",
        -1233.0
      ],
      [
        "▁khẩu",
        -1234.0
      ],
      [
        "▁Áp",
        -1235.0
      ],
      [
        "ow",
        -1236.0
      ],
      [
        "▁kỷ",
        -1237.0
      ],
      [
        "ượt",
        -1238.0
      ],
      [
        "▁nhanh",
        -1239.0
      ],
      [
        "ãng",
        -1240.0
      ],
      [
        "▁vô",
        -1241.0
      ],
      [
        "▁thư",
        -1242.0
      ],
      [
        "▁ít",
        -1243.0
      ],
      [
        "ướp",
        -1244.0
      ],
      [
        "▁hoạch",
        -1245.0
      ],
      [
        "▁Cơ",
        -1246.0
      ],
      [
        "▁Cu",
        -1247.0
      ],
      [
        "▁hỗ",
        -1248.0
      ],
      [
        "▁vong",
        -1249.0
      ],
      [
        "▁Đủ",
        -1250.0
      ],
      [
        "▁giảm",
        -1251.0
      ],
      [
        "ín",
        -1252.0
      ],
      [
        "▁chia",
        -1253.0
      ],
      [
        "▁tức",
        -1254.0
      ],
      [
        "▁US",
        -1255.0
      ],
      [
        "ah",
        -1256.0
      ],
      [
        "▁đủ",
        -1257.0
      ],
      [
        "▁cộng",
        -1258.0
      ],
      [
        "▁Chúng",
        -1259.0
      ],
      [
        "▁In",
        -1260.0
      ],
      [
        "▁hải",
        -1261.0
      ],
      [
        "▁HCM",
        -1262.0
      ],
      [
        "▁nghiệm",
        -1263.0
      ],
      [
        "ọa",
        -1264.0
      ],
      [
        "▁Châu",
        -1265.0
      ],
      [
        "▁chuyện",
        -1266.0
      ],
      [
        "▁áp",
        -1267.0
      ],
      [
        "▁phối",
        -1268.0
      ],
      [
        "ậm",
        -1269.0
      ],
      [
        "▁Từ",
        -1270.0
      ],
      [
        "▁Âm",
        -1271.0
      ],
      [
        "ell",
        -1272.0
      ],
      [
        "▁thuận",
        -1273.0
      ],
      [
        "▁soát",
        -1274.0
      ],
      [
        "▁quán",
        -1275.0
      ],
      [
        "▁Xuân",
        -1276.0
      ],
      [
        "▁cán",
        -1277.0
      ],
      [
        "▁cảm",
        -1278.0
      ],
      [
        "▁tiết",
        -1279.0
      ],
      [
        "▁Giang",
        -1280.0
      ],
      [
        "▁giết",
        -1281.0
      ],
      [
        "▁trấn",
        -1282.0
      ],
      [
        "▁chiều",
        -1283.0
      ],
      [
        "▁Đồ",
        -1284.0
      ],
      [
        "▁f",
        -1285.0
      ],
      [
        "▁gửi",
        -1286.0
      ],
      [
        "▁Dân",
        -1287.0
      ],
      [
        "▁giấy",
        -1288.0
      ],
      [
        "▁Phú",
        -1289.0
      ],
      [
        "▁thần",
        -1290.0
      ],
      [
        "▁thuốc",
        -1291.0
      ],
      [
        "▁hỏi",
        -1292.0
      ],
      [
        "▁sông",
        -1293.0
      ],
      [
        "▁Đúng",
        -1294.0
      ],
      [
        "ill",
        -1295.0
      ],
      [
        "eb",
        -1296.0
      ],
      [
        "▁Đảm",
        -1297.0
      ],
      [
        "▁Độc",
        -1298.0
      ],
      [
        "▁phong",
        -1299.0
      ],
      [
        "▁cướp",
        -1300.0
      ],
      [
        "▁xế",
        -1301.0
      ],
      [
        "▁cây",
        -1302.0
      ],
      [
        "uyết",
        -1303.0
      ],
      [
        "▁đảm",
        -1304.0
      ],
      [
        "▁khẳng",
        -1305.0
      ],
      [
        "ce",
        -1306.0
      ],
      [
        "ib",
        -1307.0
      ],
      [
        "▁viết",
        -1308.0
      ],
      [
        "▁cứng",
        -1309.0
      ],
      [
        "iêng",
        -1310.0
      ],
      [
        "ik",
        -1311.0
      ],
      [
        "ob",
        -1312.0
      ],
      [
        "▁Z",
        -1313.0
      ],
      [
        "ry",
        -1314.0
      ],
      [
        "▁tiểu",
        -1315.0
      ],
      [
        "▁Không",
        -1316.0
      ],
      [
        "▁ngờ",
        -1317.0
      ],
      [
        "▁bầu",
        -1318.0
      ],
      [
        "▁kéo",
        -1319.0
      ],
      [
        "▁âm",
        -1320.0
      ],
      [
        "▁xin",
        -1321.0
      ],
      [
        "▁Nó",
        -1322.0
      ],
      [
        "▁Đời",
        -1323.0
      ],
      [
        "▁chân",
        -1324.0
      ],
      [
        "ent",
        -1325.0
      ],
      [
        "▁nặng",
        -1326.0
      ],
      [
        "▁sao",
        -1327.0
      ],
      [
        "▁trộ",
        -1328.0
      ],
      [
        "▁Mar",
        -1329.0
      ],
      [
        "▁đồ",
        -1330.0
      ],
      [
        "▁chuẩn",
        -1331.0
      ],
      [
        "▁đăng",
        -1332.0
      ],
      [
        "uôi",
        -1333.0
      ],
      [
        "▁nguy",
        -1334.0
      ],
      [
        "▁Đài",
        -1335.0
      ],
      [
        "▁đạt",
        -1336.0
      ],
      [
        "▁lưu",
        -1337.0
      ],
      [
        "▁Đổ",
        -1338.0
      ],
      [
        "▁chương",
        -1339.0
      ],
      [
        "▁Đáng",
        -1340.0
      ],
      [
        "ẹp",
        -1341.0
      ],
      [
        "▁mỗi",
        -1342.0
      ],
      [
        "▁độc",
        -1343.0
      ],
      [
        "▁lệ",
        -1344.0
      ],
      [
        "▁Kim",
        -1345.0
      ],
      [
        "▁đổ",
        -1346.0
      ],
      [
        "▁Ninh",
        -1347.0
      ],
      [
        "▁Ngọc",
        -1348.0
      ],
      [
        "▁cụ",
        -1349.0
      ],
      [
        "▁câu",
        -1350.0
      ],
      [
        "▁_",
        -1351.0
      ],
      [
        "ard",
        -1352.0
      ],
      [
        "▁đúng",
        -1353.0
      ],
      [
        "ặn",
        -1354.0
      ],
      [
        "▁đời",
        -1355.0
      ],
      [
        "▁nữa",
        -1356.0
      ],
      [
        "▁tho",
        -1357.0
      ],
      [
        "▁bóng",
        -1358.0
      ],
      [
        "▁du",
        -1359.0
      ],
      [
        "ion",
        -1360.0
      ],
      [
        "▁Hồ",
        -1361.0
      ],
      [
        "ine",
        -1362.0
      ],
      [
        "▁sai",
        -1363.0
      ],
      [
        "▁CS",
        -1364.0
      ],
      [
        "ens",
        -1365.0
      ],
      [
        "▁Ngoài",
        -1366.0
      ],
      [
        "▁Hu",
        -1367.0
      ],
      [
        "▁Bà",
        -1368.0
      ],
      [
        "uyền",
        -1369.0
      ],
      [
        "▁Sh",
        -1370.0
      ],
      [
        "▁Vào",
        -1371.0
      ],
      [
        "▁Quân",
        -1372.0
      ],
      [
        "ướm",
        -1373.0
      ],
      [
        "▁đa",
        -1374.0
      ],
      [
        "▁cực",
        -1375.0
      ],
      [
        "▁chuyến",
        -1376.0
      ],
      [
        "ỡng",
        -1377.0
      ],
      [
        "▁màu",
        -1378.0
      ],
      [
        "▁al",
        -1379.0
      ],
      [
        "▁nhạc",
        -1380.0
      ],
      [
        "▁kẻ",
        -1381.0
      ],
      [
        "▁bướm",
        -1382.0
      ],
      [
        "ec",
        -1383.0
      ],
      [
        "▁tốt",
        -1384.0
      ],
      [
        "▁tai",
        -1385.0
      ],
      [
        "▁Ar",
        -1386.0
      ],
      [
        "▁Hồng",
        -1387.0
      ],
      [
        "▁kiếm",
        -1388.0
      ],
      [
        "▁hữu",
        -1389.0
      ],
      [
        "▁khoản",
        -1390.0
      ],
      [
        "▁trò",
        -1391.0
      ],
      [
        "sk",
        -1392.0
      ],
      [
        "ama",
        -1393.0
      ],
      [
        "▁Giám",
        -1394.0
      ],
      [
        "ich",
        -1395.0
      ],
      [
        "▁Ba",
        -1396.0
      ],
      [
        "▁Vũ",
        -1397.0
      ],
      [
        "▁Trường",
        -1398.0
      ],
      [
        "og",
        -1399.0
      ],
      [
        "▁tờ",
        -1400.0
      ],
      [
        "▁chịu",
        -1401.0
      ],
      [
        "▁Phạm",
        -1402.0
      ],
      [
        "▁USD",
        -1403.0
      ],
      [
        "▁thảo",
        -1404.0
      ],
      [
        "▁chở",
        -1405.0
      ],
      [
        "▁ai",
        -1406.0
      ],
      [
        "▁cầm",
        -1407.0
      ],
      [
        "▁nghệ",
        -1408.0
      ],
      [
        "▁trộm",
        -1409.0
      ],
      [
        "st",
        -1410.0
      ],
      [
        "▁IS",
        -1411.0
      ],
      [
        "▁tuyến",
        -1412.0
      ],
      [
        "▁vòng",
        -1413.0
      ],
      [
        "▁bọ",
        -1414.0
      ],
      [
        "▁hạ",
        -1415.0
      ],
      [
        "▁vàng",
        -1416.0
      ],
      [
        "ựu",
        -1417.0
      ],
      [
        "▁đáng",
        -1418.0
      ],
      [
        "▁hoàng",
        -1419.0
      ],
      [
        "▁dọa",
        -1420.0
      ],
      [
        "▁Le",
        -1421.0
      ],
      [
        "▁Kho",
        -1422.0
      ],
      [
        "▁vai",
        -1423.0
      ],
      [
        "▁phi",
        -1424.0
      ],
      [
        "▁ngân",
        -1425.0
      ],
      [
        "▁Cục",
        -1426.0
      ],
      [
        "▁Đạn",
        -1427.0
      ],
      [
        "▁Sở",
        -1428.0
      ],
      [
        "▁New",
        -1429.0
      ],
      [
        "▁họp",
        -1430.0
      ],
      [
        "▁rừng",
        -1431.0
      ],
      [
        "▁lao",
        -1432.0
      ],
      [
        "▁lo",
        -1433.0
      ],
      [
        "▁phán",
        -1434.0
      ],
      [
        "▁Đào",
        -1435.0
      ],
      [
        "▁Kinh",
        -1436.0
      ],
      [
        "ẫu",
        -1437.0
      ],
      [
        "▁Hồi",
        -1438.0
      ],
      [
        "▁đạn",
        -1439.0
      ],
      [
        "▁dung",
        -1440.0
      ],
      [
        "▁cường",
        -1441.0
      ],
      [
        "▁hiểm",
        -1442.0
      ],
      [
        "▁Ngoại",
        -1443.0
      ],
      [
        "ian",
        -1444.0
      ],
      [
        "▁Quang",
        -1445.0
      ],
      [
        "▁Hai",
        -1446.0
      ],
      [
        "▁bom",
        -1447.0
      ],
      [
        "▁thúc",
        -1448.0
      ],
      [
        "▁Đột",
        -1449.0
      ],
      [
        "▁thăm",
        -1450.0
      ],
      [
        "ina",
        -1451.0
      ],
      [
        "▁ngôi",
        -1452.0
      ],
      [
        "▁mối",
        -1453.0
      ],
      [
        "▁Có",
        -1454.0
      ],
      [
        "▁dấu",
        -1455.0
      ],
      [
        "▁Nguyên",
        -1456.0
      ],
      [
        "ứt",
        -1457.0
      ],
      [
        "▁lạc",
        -1458.0
      ],
      [
        "▁Iran",
        -1459.0
      ],
      [
        "▁kê",
        -1460.0
      ],
      [
        "▁ngành",
        -1461.0
      ],
      [
        "▁lái",
        -1462.0
      ],
      [
        "▁chữa",
        -1463.0
      ],
      [
        "▁xung",
        -1464.0
      ],
      [
        "ie",
        -1465.0
      ],
      [
        "iêm",
        -1466.0
      ],
      [
        "▁thích",
        -1467.0
      ],
      [
        "▁Cộng",
        -1468.0
      ],
      [
        "▁đột",
        -1469.0
      ],
      [
        "▁Nhĩ",
        -1470.0
      ],
      [
        "▁chú",
        -1471.0
      ],
      [
        "ùi",
        -1472.0
      ],
      [
        "▁Hy",
        -1473.0
      ],
      [
        "▁trụ",
        -1474.0
      ],
      [
        "▁quay",
        -1475.0
      ],
      [
        "ãn",
        -1476.0
      ],
      [
        "▁Thổ",
        -1477.0
      ],
      [
        "▁bác",
        -1478.0
      ],
      [
        "▁bắc",
        -1479.0
      ],
      [
        "▁gốc",
        -1480.0
      ],
      [
        "ines",
        -1481.0
      ],
      [
        "▁gó",
        -1482.0
      ],
      [
        "▁mật",
        -1483.0
      ],
      [
        "▁riêng",
        -1484.0
      ],
      [
        "▁cạnh",
        -1485.0
      ],
      [
        "▁vài",
        -1486.0
      ],
      [
        "▁Đe",
        -1487.0
      ],
      [
        "▁Is",
        -1488.0
      ],
      [
        "est",
        -1489.0
      ],
      [
        "az",
        -1490.0
      ],
      [
        "▁quanh",
        -1491.0
      ],
      [
        "▁tỏ",
        -1492.0
      ],
      [
        "▁đe",
        -1493.0
      ],
      [
        "▁biện",
        -1494.0
      ],
      [
        "▁thiếu",
        -1495.0
      ],
      [
        "ém",
        -1496.0
      ],
      [
        "▁tá",
        -1497.0
      ],
      [
        "▁giam",
        -1498.0
      ],
      [
        "▁mắt",
        -1499.0
      ],
      [
        "if",
        -1500.0
      ],
      [
        "▁bổ",
        -1501.0
      ],
      [
        "▁làng",
        -1502.0
      ],
      [
        "▁ngăn",
        -1503.0
      ],
      [
        "▁ủy",
        -1504.0
      ],
      [
        "▁ca",
        -1505.0
      ],
      [
        "▁lễ",
        -1506.0
      ],
      [
        "▁ru",
        -1507.0
      ],
      [
        "ịp",
        -1508.0
      ],
      [
        "ựa",
        -1509.0
      ],
      [
        "oh",
        -1510.0
      ],
      [
        "▁Ủng",
        -1511.0
      ],
      [
        "▁tiện",
        -1512.0
      ],
      [
        "▁Vụ",
        -1513.0
      ],
      [
        "▁Thế",
        -1514.0
      ],
      [
        "▁ngôn",
        -1515.0
      ],
      [
        "▁Luật",
        -1516.0
      ],
      [
        "▁Đà",
        -1517.0
      ],
      [
        "▁rút",
        -1518.0
      ],
      [
        "▁lớp",
        -1519.0
      ],
      [
        "▁thỏa",
        -1520.0
      ],
      [
        "▁quần",
        -1521.0
      ],
      [
        "▁giống",
        -1522.0
      ],
      [
        "▁lĩnh",
        -1523.0
      ],
      [
        "úi",
        -1524.0
      ],
      [
        "▁thôn",
        -1525.0
      ],
      [
        "▁Đàm",
        -1526.0
      ],
      [
        "▁thái",
        -1527.0
      ],
      [
        "▁Phil",
        -1528.0
      ],
      [
        "ủy",
        -1529.0
      ],
      [
        "▁Yên",
        -1530.0
      ],
      [
        "▁Phương",
        -1531.0
      ],
      [
        "▁La",
        -1532.0
      ],
      [
        "▁ủng",
        -1533.0
      ],
      [
        "▁tô",
        -1534.0
      ],
      [
        "▁+",
        -1535.0
      ],
      [
        "ou",
        -1536.0
      ],
      [
        "▁ngụ",
        -1537.0
      ],
      [
        "▁thắng",
        -1538.0
      ],
      [
        "▁vốn",
        -1539.0
      ],
      [
        "▁Chi",
        -1540.0
      ],
      [
        "ace",
        -1541.0
      ],
      [
        "▁Su",
        -1542.0
      ],
      [
        "▁kêu",
        -1543.0
      ],
      [
        "▁hãng",
        -1544.0
      ],
      [
        "▁mại",
        -1545.0
      ],
      [
        "▁dục",
        -1546.0
      ],
      [
        "▁đảng",
        -1547.0
      ],
      [
        "iv",
        -1548.0
      ],
      [
        "▁Nhân",
        -1549.0
      ],
      [
        "▁càng",
        -1550.0
      ],
      [
        "▁chọn",
        -1551.0
      ],
      [
        "iếp",
        -1552.0
      ],
      [
        "▁Tôi",
        -1553.0
      ],
      [
        "▁bức",
        -1554.0
      ],
      [
        "all",
        -1555.0
      ],
      [
        "▁nghiên",
        -1556.0
      ],
      [
        "▁mặc",
        -1557.0
      ],
      [
        "▁Ob",
        -1558.0
      ],
      [
        "▁trốn",
        -1559.0
      ],
      [
        "ipp",
        -1560.0
      ],
      [
        "▁hủy",
        -1561.0
      ],
      [
        "▁rơi",
        -1562.0
      ],
      [
        "▁xa",
        -1563.0
      ],
      [
        "▁môi",
        -1564.0
      ],
      [
        "▁Tuấn",
        -1565.0
      ],
      [
        "▁Re",
        -1566.0
      ],
      [
        "▁chặn",
        -1567.0
      ],
      [
        "▁dao",
        -1568.0
      ],
      [
        "▁Gia",
        -1569.0
      ],
      [
        "▁cải",
        -1570.0
      ],
      [
        "▁trao",
        -1571.0
      ],
      [
        "▁*",
        -1572.0
      ],
      [
        "▁Ướ",
        -1573.0
      ],
      [
        "▁khám",
        -1574.0
      ],
      [
        "▁Như",
        -1575.0
      ],
      [
        "▁loạt",
        -1576.0
      ],
      [
        "▁thẳng",
        -1577.0
      ],
      [
        "▁Mai",
        -1578.0
      ],
      [
        "▁Áo",
        -1579.0
      ],
      [
        "▁toán",
        -1580.0
      ],
      [
        "▁Nhưng",
        -1581.0
      ],
      [
        "▁Đầy",
        -1582.0
      ],
      [
        "▁Đế",
        -1583.0
      ],
      [
        "ta",
        -1584.0
      ],
      [
        "▁Thông",
        -1585.0
      ],
      [
        "▁đầy",
        -1586.0
      ],
      [
        "▁thoát",
        -1587.0
      ],
      [
        "▁duy",
        -1588.0
      ],
      [
        "▁Mal",
        -1589.0
      ],
      [
        "▁ngầm",
        -1590.0
      ],
      [
        "▁As",
        -1591.0
      ],
      [
        "yl",
        -1592.0
      ],
      [
        "▁thuê",
        -1593.0
      ],
      [
        "▁dây",
        -1594.0
      ],
      [
        "▁tưởng",
        -1595.0
      ],
      [
        "▁thủy",
        -1596.0
      ],
      [
        "▁nhiệt",
        -1597.0
      ],
      [
        "▁Đâm",
        -1598.0
      ],
      [
        "▁tộc",
        -1599.0
      ],
      [
        "▁lòng",
        -1600.0
      ],
      [
        "▁dầu",
        -1601.0
      ],
      [
        "▁đàm",
        -1602.0
      ],
      [
        "▁chỗ",
        -1603.0
      ],
      [
        "▁Phi",
        -1604.0
      ],
      [
        "▁cận",
        -1605.0
      ],
      [
        "ỏng",
        -1606.0
      ],
      [
        "▁nợ",
        -1607.0
      ],
      [
        "▁in",
        -1608.0
      ],
      [
        "▁lâu",
        -1609.0
      ],
      [
        "ầng",
        -1610.0
      ],
      [
        "▁nghe",
        -1611.0
      ],
      [
        "▁thừa",
        -1612.0
      ],
      [
        "istan",
        -1613.0
      ],
      [
        "▁Chiến",
        -1614.0
      ],
      [
        "▁kỹ",
        -1615.0
      ],
      [
        "▁đâm",
        -1616.0
      ],
      [
        "▁thất",
        -1617.0
      ],
      [
        "▁Lý",
        -1618.0
      ],
      [
        "▁phút",
        -1619.0
      ],
      [
        "▁luôn",
        -1620.0
      ],
      [
        "▁Đen",
        -1621.0
      ],
      [
        "▁Bảo",
        -1622.0
      ],
      [
        "▁cha",
        -1623.0
      ],
      [
        "▁Hưng",
        -1624.0
      ],
      [
        "▁Par",
        -1625.0
      ],
      [
        "▁Hiệp",
        -1626.0
      ],
      [
        "▁mùa",
        -1627.0
      ],
      [
        "▁cục",
        -1628.0
      ],
      [
        "▁Br",
        -1629.0
      ],
      [
        "▁nhìn",
        -1630.0
      ],
      [
        "▁tang",
        -1631.0
      ],
      [
        "▁chóng",
        -1632.0
      ],
      [
        "▁u",
        -1633.0
      ],
      [
        "▁Biển",
        -1634.0
      ],
      [
        "ex",
        -1635.0
      ],
      [
        "▁Đẩy",
        -1636.0
      ],
      [
        "▁tín",
        -1637.0
      ],
      [
        "▁gh",
        -1638.0
      ],
      [
        "▁tầng",
        -1639.0
      ],
      [
        "▁pháo",
        -1640.0
      ],
      [
        "▁hạng",
        -1641.0
      ],
      [
        "▁Cam",
        -1642.0
      ],
      [
        "▁đẩy",
        -1643.0
      ],
      [
        "▁Nếu",
        -1644.0
      ],
      [
        "▁Obama",
        -1645.0
      ],
      [
        "▁Phát",
        -1646.0
      ],
      [
        "▁dạng",
        -1647.0
      ],
      [
        "▁Ấy",
        -1648.0
      ],
      [
        "▁TA",
        -1649.0
      ],
      [
        "▁lược",
        -1650.0
      ],
      [
        "▁cấm",
        -1651.0
      ],
      [
        "▁thật",
        -1652.0
      ],
      [
        "▁Tư",
        -1653.0
      ],
      [
        "▁hát",
        -1654.0
      ],
      [
        "▁coi",
        -1655.0
      ],
      [
        "èo",
        -1656.0
      ],
      [
        "▁Việc",
        -1657.0
      ],
      [
        "▁ấy",
        -1658.0
      ],
      [
        "▁vọng",
        -1659.0
      ],
      [
        "aw",
        -1660.0
      ],
      [
        "▁Ước",
        -1661.0
      ],
      [
        "▁xúc",
        -1662.0
      ],
      [
        "▁Hùng",
        -1663.0
      ],
      [
        "▁hiểu",
        -1664.0
      ],
      [
        "▁PV",
        -1665.0
      ],
      [
        "iễn",
        -1666.0
      ],
      [
        "▁phận",
        -1667.0
      ],
      [
        "▁Hóa",
        -1668.0
      ],
      [
        "▁bước",
        -1669.0
      ],
      [
        "▁sắc",
        -1670.0
      ],
      [
        "▁Ánh",
        -1671.0
      ],
      [
        "▁khăn",
        -1672.0
      ],
      [
        "▁Thượng",
        -1673.0
      ],
      [
        "▁cựu",
        -1674.0
      ],
      [
        "▁nền",
        -1675.0
      ],
      [
        "▁Phong",
        -1676.0
      ],
      [
        "▁tây",
        -1677.0
      ],
      [
        "▁bờ",
        -1678.0
      ],
      [
        "▁hoảng",
        -1679.0
      ],
      [
        "▁xuyên",
        -1680.0
      ],
      [
        "▁Philipp",
        -1681.0
      ],
      [
        "ya",
        -1682.0
      ],
      [
        "▁Lâm",
        -1683.0
      ],
      [
        "▁nuôi",
        -1684.0
      ],
      [
        "▁Đôi",
        -1685.0
      ],
      [
        "▁Viện",
        -1686.0
      ],
      [
        "uk",
        -1687.0
      ],
      [
        "▁sâu",
        -1688.0
      ],
      [
        "▁vượt",
        -1689.0
      ],
      [
        "ão",
        -1690.0
      ],
      [
        "▁giành",
        -1691.0
      ],
      [
        "▁Nhiều",
        -1692.0
      ],
      [
        "▁băng",
        -1693.0
      ],
      [
        "ers",
        -1694.0
      ],
      [
        "ach",
        -1695.0
      ],
      [
        "▁tốc",
        -1696.0
      ],
      [
        "▁bạc",
        -1697.0
      ],
      [
        "▁buôn",
        -1698.0
      ],
      [
        "▁cam",
        -1699.0
      ],
      [
        "eg",
        -1700.0
      ],
      [
        "tr",
        -1701.0
      ],
      [
        "aceae",
        -1702.0
      ],
      [
        "uyệt",
        -1703.0
      ],
      [
        "of",
        -1704.0
      ],
      [
        "▁buổi",
        -1705.0
      ],
      [
        "▁Vĩnh",
        -1706.0
      ],
      [
        "▁Đoạt",
        -1707.0
      ],
      [
        "▁tỉ",
        -1708.0
      ],
      [
        "▁đoạt",
        -1709.0
      ],
      [
        "▁núi",
        -1710.0
      ],
      [
        "▁song",
        -1711.0
      ],
      [
        "▁TAND",
        -1712.0
      ],
      [
        "▁Lực",
        -1713.0
      ],
      [
        "▁Tổ",
        -1714.0
      ],
      [
        "ớm",
        -1715.0
      ],
      [
        "io",
        -1716.0
      ],
      [
        "▁HĐ",
        -1717.0
      ],
      [
        "ẵn",
        -1718.0
      ],
      [
        "▁Ngay",
        -1719.0
      ],
      [
        "don",
        -1720.0
      ],
      [
        "▁bày",
        -1721.0
      ],
      [
        "▁chứa",
        -1722.0
      ],
      [
        "ợt",
        -1723.0
      ],
      [
        "▁thổ",
        -1724.0
      ],
      [
        "▁Con",
        -1725.0
      ],
      [
        "▁thử",
        -1726.0
      ],
      [
        "▁mẫu",
        -1727.0
      ],
      [
        "▁khiển",
        -1728.0
      ],
      [
        "GT",
        -1729.0
      ],
      [
        "▁Tòa",
        -1730.0
      ],
      [
        "▁TT",
        -1731.0
      ],
      [
        "▁Tiến",
        -1732.0
      ],
      [
        "▁thuyết",
        -1733.0
      ],
      [
        "▁quê",
        -1734.0
      ],
      [
        "▁Vương",
        -1735.0
      ],
      [
        "▁Đích",
        -1736.0
      ],
      [
        "▁ước",
        -1737.0
      ],
      [
        "èn",
        -1738.0
      ],
      [
        "▁Vì",
        -1739.0
      ],
      [
        "▁Nghệ",
        -1740.0
      ],
      [
        "▁TN",
        -1741.0
      ],
      [
        "▁Ab",
        -1742.0
      ],
      [
        "▁The",
        -1743.0
      ],
      [
        "▁đen",
        -1744.0
      ],
      [
        "ant",
        -1745.0
      ],
      [
        "▁Philippines",
        -1746.0
      ],
      [
        "▁đích",
        -1747.0
      ],
      [
        "▁cắt",
        -1748.0
      ],
      [
        "iễ",
        -1749.0
      ],
      [
        "▁nghỉ",
        -1750.0
      ],
      [
        "▁thập",
        -1751.0
      ],
      [
        "▁Báo",
        -1752.0
      ],
      [
        "ub",
        -1753.0
      ],
      [
        "▁sớm",
        -1754.0
      ],
      [
        "▁phó",
        -1755.0
      ],
      [
        "amb",
        -1756.0
      ],
      [
        "▁trì",
        -1757.0
      ],
      [
        "▁Xã",
        -1758.0
      ],
      [
        "na",
        -1759.0
      ],
      [
        "▁sẵn",
        -1760.0
      ],
      [
        "ea",
        -1761.0
      ],
      [
        "man",
        -1762.0
      ],
      [
        "▁phê",
        -1763.0
      ],
      [
        "ẵng",
        -1764.0
      ],
      [
        "ĐT",
        -1765.0
      ],
      [
        "▁ngồi",
        -1766.0
      ],
      [
        "▁đôi",
        -1767.0
      ],
      [
        "▁Nha",
        -1768.0
      ],
      [
        "▁Sự",
        -1769.0
      ],
      [
        "▁Đám",
        -1770.0
      ],
      [
        "âng",
        -1771.0
      ],
      [
        "▁Thiên",
        -1772.0
      ],
      [
        "ud",
        -1773.0
      ],
      [
        "ass",
        -1774.0
      ],
      [
        "ata",
        -1775.0
      ],
      [
        "AT",
        -1776.0
      ],
      [
        "▁Đỏ",
        -1777.0
      ],
      [
        "▁w",
        -1778.0
      ],
      [
        "▁sứ",
        -1779.0
      ],
      [
        "▁dòng",
        -1780.0
      ],
      [
        "han",
        -1781.0
      ],
      [
        "▁thác",
        -1782.0
      ],
      [
        "▁hỏa",
        -1783.0
      ],
      [
        "▁Đòi",
        -1784.0
      ],
      [
        "▁Nẵng",
        -1785.0
      ],
      [
        "▁khẩn",
        -1786.0
      ],
      [
        "▁khá",
        -1787.0
      ],
      [
        "rael",
        -1788.0
      ],
      [
        "ez",
        -1789.0
      ],
      [
        "▁đòi",
        -1790.0
      ],
      [
        "▁Ổn",
        -1791.0
      ],
      [
        "▁bại",
        -1792.0
      ],
      [
        "▁PC",
        -1793.0
      ],
      [
        "▁máu",
        -1794.0
      ],
      [
        "▁ổn",
        -1795.0
      ],
      [
        "▁tạp",
        -1796.0
      ],
      [
        "▁lỗi",
        -1797.0
      ],
      [
        "▁dương",
        -1798.0
      ],
      [
        "ey",
        -1799.0
      ],
      [
        "▁Israel",
        -1800.0
      ],
      [
        "▁tầm",
        -1801.0
      ],
      [
        "▁dâm",
        -1802.0
      ],
      [
        "▁Car",
        -1803.0
      ],
      [
        "▁hầu",
        -1804.0
      ],
      [
        "▁vua",
        -1805.0
      ],
      [
        "▁tránh",
        -1806.0
      ],
      [
        "▁tái",
        -1807.0
      ],
      [
        "▁trăm",
        -1808.0
      ],
      [
        "▁hung",
        -1809.0
      ],
      [
        "▁xếp",
        -1810.0
      ],
      [
        "▁Trưởng",
        -1811.0
      ],
      [
        "▁áo",
        -1812.0
      ],
      [
        "▁dừng",
        -1813.0
      ],
      [
        "▁lá",
        -1814.0
      ],
      [
        "▁Biên",
        -1815.0
      ],
      [
        "▁sửa",
        -1816.0
      ],
      [
        "ideo",
        -1817.0
      ],
      [
        "▁Linh",
        -1818.0
      ],
      [
        "▁hôn",
        -1819.0
      ],
      [
        "KS",
        -1820.0
      ],
      [
        "▁ly",
        -1821.0
      ],
      [
        "▁chục",
        -1822.0
      ],
      [
        "ack",
        -1823.0
      ],
      [
        "▁Bar",
        -1824.0
      ],
      [
        "▁Cao",
        -1825.0
      ],
      [
        "▁phiếu",
        -1826.0
      ],
      [
        "ót",
        -1827.0
      ],
      [
        "▁Họ",
        -1828.0
      ],
      [
        "▁ngại",
        -1829.0
      ],
      [
        "▁Cl",
        -1830.0
      ],
      [
        "▁Ira",
        -1831.0
      ],
      [
        "▁Vi",
        -1832.0
      ],
      [
        "▁ngữ",
        -1833.0
      ],
      [
        "▁nông",
        -1834.0
      ],
      [
        "▁Với",
        -1835.0
      ],
      [
        "▁họa",
        -1836.0
      ],
      [
        "▁ánh",
        -1837.0
      ],
      [
        "▁Khánh",
        -1838.0
      ],
      [
        "▁Phan",
        -1839.0
      ],
      [
        "iềm",
        -1840.0
      ],
      [
        "▁bãi",
        -1841.0
      ],
      [
        "▁Chí",
        -1842.0
      ],
      [
        "▁lục",
        -1843.0
      ],
      [
        "▁Iraq",
        -1844.0
      ],
      [
        "▁thụ",
        -1845.0
      ],
      [
        "▁Tài",
        -1846.0
      ],
      [
        "▁Put",
        -1847.0
      ],
      [
        "▁nhờ",
        -1848.0
      ],
      [
        "ỳnh",
        -1849.0
      ],
      [
        "▁lừa",
        -1850.0
      ],
      [
        "▁rời",
        -1851.0
      ],
      [
        "▁bạo",
        -1852.0
      ],
      [
        "▁vay",
        -1853.0
      ],
      [
        "▁thấp",
        -1854.0
      ],
      [
        "▁xâm",
        -1855.0
      ],
      [
        "te",
        -1856.0
      ],
      [
        "▁thuế",
        -1857.0
      ],
      [
        "▁cũ",
        -1858.0
      ],
      [
        "▁đám",
        -1859.0
      ],
      [
        "▁Dũng",
        -1860.0
      ],
      [
        "▁góp",
        -1861.0
      ],
      [
        "▁nêu",
        -1862.0
      ],
      [
        "▁Bệnh",
        -1863.0
      ],
      [
        "▁Tháng",
        -1864.0
      ],
      [
        "uc",
        -1865.0
      ],
      [
        "sia",
        -1866.0
      ],
      [
        "▁sợ",
        -1867.0
      ],
      [
        "▁Cũng",
        -1868.0
      ],
      [
        "▁Tàu",
        -1869.0
      ],
      [
        "ashi",
        -1870.0
      ],
      [
        "▁Thuận",
        -1871.0
      ],
      [
        "▁lâm",
        -1872.0
      ],
      [
        "▁Ai",
        -1873.0
      ],
      [
        "▁chặt",
        -1874.0
      ],
      [
        "▁Putin",
        -1875.0
      ],
      [
        "ain",
        -1876.0
      ],
      [
        "era",
        -1877.0
      ],
      [
        "▁Geo",
        -1878.0
      ],
      [
        "▁Cr",
        -1879.0
      ],
      [
        "▁tồn",
        -1880.0
      ],
      [
        "▁Đuổi",
        -1881.0
      ],
      [
        "da",
        -1882.0
      ],
      [
        "▁trắng",
        -1883.0
      ],
      [
        "▁gỗ",
        -1884.0
      ],
      [
        "▁Đau",
        -1885.0
      ],
      [
        "ắk",
        -1886.0
      ],
      [
        "▁đuổi",
        -1887.0
      ],
      [
        "õi",
        -1888.0
      ],
      [
        "▁luyện",
        -1889.0
      ],
      [
        "▁dễ",
        -1890.0
      ],
      [
        "▁sóng",
        -1891.0
      ],
      [
        "▁Phúc",
        -1892.0
      ],
      [
        "▁Về",
        -1893.0
      ],
      [
        "▁Thủy",
        -1894.0
      ],
      [
        "▁sẻ",
        -1895.0
      ],
      [
        "▁nỗ",
        -1896.0
      ],
      [
        "▁dữ",
        -1897.0
      ],
      [
        "▁Xô",
        -1898.0
      ],
      [
        "▁Danh",
        -1899.0
      ],
      [
        "▁mưu",
        -1900.0
      ],
      [
        "▁to",
        -1901.0
      ],
      [
        "▁giai",
        -1902.0
      ],
      [
        "▁nộ",
        -1903.0
      ],
      [
        "ber",
        -1904.0
      ],
      [
        "▁Lộc",
        -1905.0
      ],
      [
        "▁Mos",
        -1906.0
      ],
      [
        "ỏe",
        -1907.0
      ],
      [
        "▁Chỉ",
        -1908.0
      ],
      [
        "son",
        -1909.0
      ],
      [
        "▁vương",
        -1910.0
      ],
      [
        "ụy",
        -1911.0
      ],
      [
        "▁vây",
        -1912.0
      ],
      [
        "▁dành",
        -1913.0
      ],
      [
        "▁bí",
        -1914.0
      ],
      [
        "▁đau",
        -1915.0
      ],
      [
        "▁II",
        -1916.0
      ],
      [
        "▁phái",
        -1917.0
      ],
      [
        "ly",
        -1918.0
      ],
      [
        "▁vu",
        -1919.0
      ],
      [
        "ord",
        -1920.0
      ],
      [
        "▁Cô",
        -1921.0
      ],
      [
        "▁khỏe",
        -1922.0
      ],
      [
        "▁kg",
        -1923.0
      ],
      [
        "▁chờ",
        -1924.0
      ],
      [
        "▁nhấn",
        -1925.0
      ],
      [
        "▁kịp",
        -1926.0
      ],
      [
        "▁lính",
        -1927.0
      ],
      [
        "▁Tập",
        -1928.0
      ],
      [
        "▁Địch",
        -1929.0
      ],
      [
        "▁thăng",
        -1930.0
      ],
      [
        "▁bồi",
        -1931.0
      ],
      [
        "▁Khu",
        -1932.0
      ],
      [
        "▁giáp",
        -1933.0
      ],
      [
        "▁đỏ",
        -1934.0
      ],
      [
        "▁liệt",
        -1935.0
      ],
      [
        "▁de",
        -1936.0
      ],
      [
        "▁sắt",
        -1937.0
      ],
      [
        "▁lư",
        -1938.0
      ],
      [
        "▁thiên",
        -1939.0
      ],
      [
        "▁nghĩ",
        -1940.0
      ],
      [
        "▁Sáng",
        -1941.0
      ],
      [
        "▁Am",
        -1942.0
      ],
      [
        "▁trục",
        -1943.0
      ],
      [
        "▁khắc",
        -1944.0
      ],
      [
        "▁Đương",
        -1945.0
      ],
      [
        "▁thuẫn",
        -1946.0
      ],
      [
        "▁Hương",
        -1947.0
      ],
      [
        "ty",
        -1948.0
      ],
      [
        "▁ngư",
        -1949.0
      ],
      [
        "▁Ương",
        -1950.0
      ],
      [
        "▁uống",
        -1951.0
      ],
      [
        "▁suốt",
        -1952.0
      ],
      [
        "▁nóng",
        -1953.0
      ],
      [
        "▁khóa",
        -1954.0
      ],
      [
        "▁địch",
        -1955.0
      ],
      [
        "▁Vinh",
        -1956.0
      ],
      [
        "▁trời",
        -1957.0
      ],
      [
        "▁dậy",
        -1958.0
      ],
      [
        "ore",
        -1959.0
      ],
      [
        "▁ương",
        -1960.0
      ],
      [
        "▁nghề",
        -1961.0
      ],
      [
        "▁Bị",
        -1962.0
      ],
      [
        "▁diệt",
        -1963.0
      ],
      [
        "▁El",
        -1964.0
      ],
      [
        "▁lan",
        -1965.0
      ],
      [
        "oph",
        -1966.0
      ],
      [
        "eh",
        -1967.0
      ],
      [
        "▁tắc",
        -1968.0
      ],
      [
        "▁Lương",
        -1969.0
      ],
      [
        "▁tôn",
        -1970.0
      ],
      [
        "▁vết",
        -1971.0
      ],
      [
        "▁cập",
        -1972.0
      ],
      [
        "▁Đáp",
        -1973.0
      ],
      [
        "ium",
        -1974.0
      ],
      [
        "▁lậu",
        -1975.0
      ],
      [
        "ess",
        -1976.0
      ],
      [
        "▁nâng",
        -1977.0
      ],
      [
        "▁dựa",
        -1978.0
      ],
      [
        "▁đào",
        -1979.0
      ],
      [
        "▁xóm",
        -1980.0
      ],
      [
        "land",
        -1981.0
      ],
      [
        "ank",
        -1982.0
      ],
      [
        "▁Giáo",
        -1983.0
      ],
      [
        "ast",
        -1984.0
      ],
      [
        "▁nối",
        -1985.0
      ],
      [
        "▁loạn",
        -1986.0
      ],
      [
        "ụp",
        -1987.0
      ],
      [
        "▁phổ",
        -1988.0
      ],
      [
        "▁Mặc",
        -1989.0
      ],
      [
        "▁Sa",
        -1990.0
      ],
      [
        "▁Hàng",
        -1991.0
      ],
      [
        "▁hy",
        -1992.0
      ],
      [
        "yc",
        -1993.0
      ],
      [
        "ost",
        -1994.0
      ],
      [
        "▁Đỗ",
        -1995.0
      ],
      [
        "▁Lúc",
        -1996.0
      ],
      [
        "▁thú",
        -1997.0
      ],
      [
        "ep",
        -1998.0
      ],
      [
        "▁Đốt",
        -1999.0
      ],
      [
        "▁EU",
        -2000.0
      ],
      [
        "▁CSGT",
        -2001.0
      ],
      [
        "▁Loan",
        -2002.0
      ],
      [
        "ei",
        -2003.0
      ],
      [
        "▁thiện",
        -2004.0
      ],
      [
        "▁Cường",
        -2005.0
      ],
      [
        "▁kịch",
        -2006.0
      ],
      [
        "ãy",
        -2007.0
      ],
      [
        "▁đốt",
        -2008.0
      ],
      [
        "▁cấu",
        -2009.0
      ],
      [
        "▁nắm",
        -2010.0
      ],
      [
        "▁khối",
        -2011.0
      ],
      [
        "▁tán",
        -2012.0
      ],
      [
        "▁Joh",
        -2013.0
      ],
      [
        "▁nhu",
        -2014.0
      ],
      [
        "▁liền",
        -2015.0
      ],
      [
        "▁cắp",
        -2016.0
      ],
      [
        "▁mong",
        -2017.0
      ],
      [
        "▁đương",
        -2018.0
      ],
      [
        "▁Ngân",
        -2019.0
      ],
      [
        "▁Qua",
        -2020.0
      ],
      [
        "▁niệm",
        -2021.0
      ],
      [
        "▁tuyển",
        -2022.0
      ],
      [
        "▁sàng",
        -2023.0
      ],
      [
        "▁nhiễ",
        -2024.0
      ],
      [
        "▁Ích",
        -2025.0
      ],
      [
        "▁chợ",
        -2026.0
      ],
      [
        "▁lai",
        -2027.0
      ],
      [
        "▁ngừng",
        -2028.0
      ],
      [
        "▁Thời",
        -2029.0
      ],
      [
        "▁chiếu",
        -2030.0
      ],
      [
        "▁Đứa",
        -2031.0
      ],
      [
        "▁thưởng",
        -2032.0
      ],
      [
        "▁mời",
        -2033.0
      ],
      [
        "▁Cập",
        -2034.0
      ],
      [
        "▁dụ",
        -2035.0
      ],
      [
        "▁Can",
        -2036.0
      ],
      [
        "ềm",
        -2037.0
      ],
      [
        "ườn",
        -2038.0
      ],
      [
        "▁ngắn",
        -2039.0
      ],
      [
        "▁cl",
        -2040.0
      ],
      [
        "our",
        -2041.0
      ],
      [
        "▁Washi",
        -2042.0
      ],
      [
        "ngton",
        -2043.0
      ],
      [
        "▁kim",
        -2044.0
      ],
      [
        "▁Sc",
        -2045.0
      ],
      [
        "▁Malay",
        -2046.0
      ],
      [
        "▁Washington",
        -2047.0
      ],
      [
        "▁Chiều",
        -2048.0
      ],
      [
        "▁Đập",
        -2049.0
      ],
      [
        "ượu",
        -2050.0
      ],
      [
        "▁trại",
        -2051.0
      ],
      [
        "▁Ki",
        -2052.0
      ],
      [
        "ters",
        -2053.0
      ],
      [
        "orn",
        -2054.0
      ],
      [
        "▁đáp",
        -2055.0
      ],
      [
        "▁trích",
        -2056.0
      ],
      [
        "▁giác",
        -2057.0
      ],
      [
        "▁Mã",
        -2058.0
      ],
      [
        "▁Huy",
        -2059.0
      ],
      [
        "▁trừ",
        -2060.0
      ],
      [
        "▁Trang",
        -2061.0
      ],
      [
        "▁CA",
        -2062.0
      ],
      [
        "▁phe",
        -2063.0
      ],
      [
        "▁Giải",
        -2064.0
      ],
      [
        "▁Phước",
        -2065.0
      ],
      [
        "▁đế",
        -2066.0
      ],
      [
        "▁bốn",
        -2067.0
      ],
      [
        "▁a",
        -2068.0
      ],
      [
        "▁đứa",
        -2069.0
      ],
      [
        "▁nhẹ",
        -2070.0
      ],
      [
        "alia",
        -2071.0
      ],
      [
        "bum",
        -2072.0
      ],
      [
        "▁Thắng",
        -2073.0
      ],
      [
        "▁dõi",
        -2074.0
      ],
      [
        "▁căng",
        -2075.0
      ],
      [
        "▁sung",
        -2076.0
      ],
      [
        "▁thuyền",
        -2077.0
      ],
      [
        "▁Nghị",
        -2078.0
      ],
      [
        "▁trật",
        -2079.0
      ],
      [
        "▁Khoảng",
        -2080.0
      ],
      [
        "▁Chu",
        -2081.0
      ],
      [
        "uch",
        -2082.0
      ],
      [
        "▁ích",
        -2083.0
      ],
      [
        "ara",
        -2084.0
      ],
      [
        "▁Đồn",
        -2085.0
      ],
      [
        "▁thảm",
        -2086.0
      ],
      [
        "▁Fran",
        -2087.0
      ],
      [
        "▁đài",
        -2088.0
      ],
      [
        "▁đập",
        -2089.0
      ],
      [
        "ọt",
        -2090.0
      ],
      [
        "▁Sch",
        -2091.0
      ],
      [
        "▁Cuộc",
        -2092.0
      ],
      [
        "▁nộp",
        -2093.0
      ],
      [
        "▁bánh",
        -2094.0
      ],
      [
        "▁rượu",
        -2095.0
      ],
      [
        "▁Tĩnh",
        -2096.0
      ],
      [
        "▁Trương",
        -2097.0
      ],
      [
        "▁chứ",
        -2098.0
      ],
      [
        "▁Duy",
        -2099.0
      ],
      [
        "esia",
        -2100.0
      ],
      [
        "opter",
        -2101.0
      ],
      [
        "▁khắp",
        -2102.0
      ],
      [
        "▁khống",
        -2103.0
      ],
      [
        "ón",
        -2104.0
      ],
      [
        "▁hiệp",
        -2105.0
      ],
      [
        "ensis",
        -2106.0
      ],
      [
        "▁thậm",
        -2107.0
      ],
      [
        "▁Malaysia",
        -2108.0
      ],
      [
        "▁Kiểm",
        -2109.0
      ],
      [
        "▁phù",
        -2110.0
      ],
      [
        "ug",
        -2111.0
      ],
      [
        "enk",
        -2112.0
      ],
      [
        "▁suy",
        -2113.0
      ],
      [
        "▁kháng",
        -2114.0
      ],
      [
        "▁ràng",
        -2115.0
      ],
      [
        "▁Còn",
        -2116.0
      ],
      [
        "▁Nghĩa",
        -2117.0
      ],
      [
        "ash",
        -2118.0
      ],
      [
        "▁Đới",
        -2119.0
      ],
      [
        "▁vỡ",
        -2120.0
      ],
      [
        "▁thờ",
        -2121.0
      ],
      [
        "▁Gr",
        -2122.0
      ],
      [
        "▁trừng",
        -2123.0
      ],
      [
        "▁AF",
        -2124.0
      ],
      [
        "▁Đinh",
        -2125.0
      ],
      [
        "▁mét",
        -2126.0
      ],
      [
        "▁Đậu",
        -2127.0
      ],
      [
        "TV",
        -2128.0
      ],
      [
        "▁siêu",
        -2129.0
      ],
      [
        "end",
        -2130.0
      ],
      [
        "▁Đâu",
        -2131.0
      ],
      [
        "▁thịt",
        -2132.0
      ],
      [
        "▁Ngô",
        -2133.0
      ],
      [
        "▁VN",
        -2134.0
      ],
      [
        "▁Col",
        -2135.0
      ],
      [
        "▁Cần",
        -2136.0
      ],
      [
        "▁huấn",
        -2137.0
      ],
      [
        "▁kính",
        -2138.0
      ],
      [
        "▁triều",
        -2139.0
      ],
      [
        "ữa",
        -2140.0
      ],
      [
        "▁John",
        -2141.0
      ],
      [
        "▁Kar",
        -2142.0
      ],
      [
        "▁đới",
        -2143.0
      ],
      [
        "iz",
        -2144.0
      ],
      [
        "▁chối",
        -2145.0
      ],
      [
        "▁mâu",
        -2146.0
      ],
      [
        "▁đâu",
        -2147.0
      ],
      [
        "▁chẳng",
        -2148.0
      ],
      [
        "▁ngã",
        -2149.0
      ],
      [
        "▁ném",
        -2150.0
      ],
      [
        "▁lẽ",
        -2151.0
      ],
      [
        "▁Hợp",
        -2152.0
      ],
      [
        "▁Lưu",
        -2153.0
      ],
      [
        "▁Đón",
        -2154.0
      ],
      [
        "▁hạm",
        -2155.0
      ],
      [
        "▁Điển",
        -2156.0
      ],
      [
        "ada",
        -2157.0
      ],
      [
        "ana",
        -2158.0
      ],
      [
        "▁Lai",
        -2159.0
      ],
      [
        "VN",
        -2160.0
      ],
      [
        "▁cảng",
        -2161.0
      ],
      [
        "orm",
        -2162.0
      ],
      [
        "▁Cùng",
        -2163.0
      ],
      [
        "▁suất",
        -2164.0
      ],
      [
        "▁Reu",
        -2165.0
      ],
      [
        "ork",
        -2166.0
      ],
      [
        "▁Nguồn",
        -2167.0
      ],
      [
        "▁Thọ",
        -2168.0
      ],
      [
        "▁Hữu",
        -2169.0
      ],
      [
        "ct",
        -2170.0
      ],
      [
        "▁of",
        -2171.0
      ],
      [
        "▁ngủ",
        -2172.0
      ],
      [
        "▁Man",
        -2173.0
      ],
      [
        "▁Af",
        -2174.0
      ],
      [
        "▁đón",
        -2175.0
      ],
      [
        "▁Sp",
        -2176.0
      ],
      [
        "▁Reuters",
        -2177.0
      ],
      [
        "▁nhiễm",
        -2178.0
      ],
      [
        "▁hút",
        -2179.0
      ],
      [
        "▁xấu",
        -2180.0
      ],
      [
        "▁nhắc",
        -2181.0
      ],
      [
        "▁lương",
        -2182.0
      ],
      [
        "▁may",
        -2183.0
      ],
      [
        "▁nhũng",
        -2184.0
      ],
      [
        "▁môn",
        -2185.0
      ],
      [
        "▁chó",
        -2186.0
      ],
      [
        "▁sỹ",
        -2187.0
      ],
      [
        "▁Hạ",
        -2188.0
      ],
      [
        "▁Đem",
        -2189.0
      ],
      [
        "▁Số",
        -2190.0
      ],
      [
        "ATO",
        -2191.0
      ],
      [
        "tô",
        -2192.0
      ],
      [
        "▁Pr",
        -2193.0
      ],
      [
        "▁bối",
        -2194.0
      ],
      [
        "▁NATO",
        -2195.0
      ],
      [
        "▁xanh",
        -2196.0
      ],
      [
        "▁Pal",
        -2197.0
      ],
      [
        "▁Đẹp",
        -2198.0
      ],
      [
        "▁đem",
        -2199.0
      ],
      [
        "▁Thương",
        -2200.0
      ],
      [
        "▁dứt",
        -2201.0
      ],
      [
        "▁Tam",
        -2202.0
      ],
      [
        "▁bảng",
        -2203.0
      ],
      [
        "▁túi",
        -2204.0
      ],
      [
        "▁Hình",
        -2205.0
      ],
      [
        "▁Air",
        -2206.0
      ],
      [
        "úa",
        -2207.0
      ],
      [
        "▁AFP",
        -2208.0
      ],
      [
        "▁Đọc",
        -2209.0
      ],
      [
        "▁Lib",
        -2210.0
      ],
      [
        "▁Hậu",
        -2211.0
      ],
      [
        "▁Huế",
        -2212.0
      ],
      [
        "▁Lạp",
        -2213.0
      ],
      [
        "ceae",
        -2214.0
      ],
      [
        "▁video",
        -2215.0
      ],
      [
        "ath",
        -2216.0
      ],
      [
        "ont",
        -2217.0
      ],
      [
        "XX",
        -2218.0
      ],
      [
        "▁mắc",
        -2219.0
      ],
      [
        "▁Và",
        -2220.0
      ],
      [
        "▁thù",
        -2221.0
      ],
      [
        "etr",
        -2222.0
      ],
      [
        "▁đẹp",
        -2223.0
      ],
      [
        "▁Gu",
        -2224.0
      ],
      [
        "▁chắc",
        -2225.0
      ],
      [
        "▁Bl",
        -2226.0
      ],
      [
        "▁Trên",
        -2227.0
      ],
      [
        "▁quen",
        -2228.0
      ],
      [
        "▁bốc",
        -2229.0
      ],
      [
        "▁Đỡ",
        -2230.0
      ],
      [
        "▁cãi",
        -2231.0
      ],
      [
        "▁tệ",
        -2232.0
      ],
      [
        "▁đỡ",
        -2233.0
      ],
      [
        "▁la",
        -2234.0
      ],
      [
        "ek",
        -2235.0
      ],
      [
        "▁gắn",
        -2236.0
      ],
      [
        "▁HĐXX",
        -2237.0
      ],
      [
        "▁Nghi",
        -2238.0
      ],
      [
        "▁Thơ",
        -2239.0
      ],
      [
        "▁Chánh",
        -2240.0
      ],
      [
        "▁sắp",
        -2241.0
      ],
      [
        "▁chém",
        -2242.0
      ],
      [
        "▁CSĐT",
        -2243.0
      ],
      [
        "uyến",
        -2244.0
      ],
      [
        "▁Toàn",
        -2245.0
      ],
      [
        "▁Vân",
        -2246.0
      ],
      [
        "▁nghìn",
        -2247.0
      ],
      [
        "▁chấm",
        -2248.0
      ],
      [
        "▁nhớ",
        -2249.0
      ],
      [
        "▁ngược",
        -2250.0
      ],
      [
        "▁Indon",
        -2251.0
      ],
      [
        "ii",
        -2252.0
      ],
      [
        "▁Ber",
        -2253.0
      ],
      [
        "▁trùng",
        -2254.0
      ],
      [
        "▁thượng",
        -2255.0
      ],
      [
        "▁lượt",
        -2256.0
      ],
      [
        "▁mềm",
        -2257.0
      ],
      [
        "ùm",
        -2258.0
      ],
      [
        "▁mũ",
        -2259.0
      ],
      [
        "▁Indonesia",
        -2260.0
      ],
      [
        "ica",
        -2261.0
      ],
      [
        "lin",
        -2262.0
      ],
      [
        "▁tàng",
        -2263.0
      ],
      [
        "▁Thụy",
        -2264.0
      ],
      [
        "▁mã",
        -2265.0
      ],
      [
        "ock",
        -2266.0
      ],
      [
        "▁Ép",
        -2267.0
      ],
      [
        "ụi",
        -2268.0
      ],
      [
        "▁chắn",
        -2269.0
      ],
      [
        "▁the",
        -2270.0
      ],
      [
        "ẹn",
        -2271.0
      ],
      [
        "▁Võ",
        -2272.0
      ],
      [
        "▁hơi",
        -2273.0
      ],
      [
        "▁Ma",
        -2274.0
      ],
      [
        "ook",
        -2275.0
      ],
      [
        "ện",
        -2276.0
      ],
      [
        "▁Bùi",
        -2277.0
      ],
      [
        "▁lô",
        -2278.0
      ],
      [
        "ge",
        -2279.0
      ],
      [
        "▁Bên",
        -2280.0
      ],
      [
        "▁phúc",
        -2281.0
      ],
      [
        "one",
        -2282.0
      ],
      [
        "▁lạ",
        -2283.0
      ],
      [
        "▁quý",
        -2284.0
      ],
      [
        "▁Đỉnh",
        -2285.0
      ],
      [
        "▁bào",
        -2286.0
      ],
      [
        "▁Lào",
        -2287.0
      ],
      [
        "▁giật",
        -2288.0
      ],
      [
        "▁thải",
        -2289.0
      ],
      [
        "xi",
        -2290.0
      ],
      [
        "▁Bí",
        -2291.0
      ],
      [
        "▁ép",
        -2292.0
      ],
      [
        "▁nhánh",
        -2293.0
      ],
      [
        "oy",
        -2294.0
      ],
      [
        "▁ngang",
        -2295.0
      ],
      [
        "▁Đai",
        -2296.0
      ],
      [
        "▁cuốn",
        -2297.0
      ],
      [
        "ier",
        -2298.0
      ],
      [
        "▁Pl",
        -2299.0
      ],
      [
        "HH",
        -2300.0
      ],
      [
        "▁giấu",
        -2301.0
      ],
      [
        "▁phức",
        -2302.0
      ],
      [
        "▁Ale",
        -2303.0
      ],
      [
        "▁đai",
        -2304.0
      ],
      [
        "ert",
        -2305.0
      ],
      [
        "▁nửa",
        -2306.0
      ],
      [
        "▁đọc",
        -2307.0
      ],
      [
        "▁dần",
        -2308.0
      ],
      [
        "▁Camp",
        -2309.0
      ],
      [
        "ius",
        -2310.0
      ],
      [
        "net",
        -2311.0
      ],
      [
        "▁cất",
        -2312.0
      ],
      [
        "▁trưng",
        -2313.0
      ],
      [
        "▁sạn",
        -2314.0
      ],
      [
        "▁trương",
        -2315.0
      ],
      [
        "ind",
        -2316.0
      ],
      [
        "▁xong",
        -2317.0
      ],
      [
        "▁Cụ",
        -2318.0
      ],
      [
        "▁cậu",
        -2319.0
      ],
      [
        "▁Har",
        -2320.0
      ],
      [
        "ort",
        -2321.0
      ],
      [
        "ff",
        -2322.0
      ],
      [
        "▁clip",
        -2323.0
      ],
      [
        "▁gắng",
        -2324.0
      ],
      [
        "▁Cổ",
        -2325.0
      ],
      [
        "▁Quản",
        -2326.0
      ],
      [
        "ula",
        -2327.0
      ],
      [
        "▁TNHH",
        -2328.0
      ],
      [
        "▁album",
        -2329.0
      ],
      [
        "ít",
        -2330.0
      ],
      [
        "▁da",
        -2331.0
      ],
      [
        "▁Pak",
        -2332.0
      ],
      [
        "ựng",
        -2333.0
      ],
      [
        "▁Nai",
        -2334.0
      ],
      [
        "▁nhện",
        -2335.0
      ],
      [
        "▁Hán",
        -2336.0
      ],
      [
        "CN",
        -2337.0
      ],
      [
        "▁kiểu",
        -2338.0
      ],
      [
        "▁trữ",
        -2339.0
      ],
      [
        "▁trinh",
        -2340.0
      ],
      [
        "▁Tâm",
        -2341.0
      ],
      [
        "▁chỉnh",
        -2342.0
      ],
      [
        "▁Ẩn",
        -2343.0
      ],
      [
        "▁Cal",
        -2344.0
      ],
      [
        "und",
        -2345.0
      ],
      [
        "▁bão",
        -2346.0
      ],
      [
        "▁quảng",
        -2347.0
      ],
      [
        "ico",
        -2348.0
      ],
      [
        "▁My",
        -2349.0
      ],
      [
        "ma",
        -2350.0
      ],
      [
        "iss",
        -2351.0
      ],
      [
        "▁Tiền",
        -2352.0
      ],
      [
        "▁bụng",
        -2353.0
      ],
      [
        "▁VKS",
        -2354.0
      ],
      [
        "▁xăng",
        -2355.0
      ],
      [
        "mar",
        -2356.0
      ],
      [
        "▁vé",
        -2357.0
      ],
      [
        "▁TH",
        -2358.0
      ],
      [
        "▁Ser",
        -2359.0
      ],
      [
        "▁lẫn",
        -2360.0
      ],
      [
        "TT",
        -2361.0
      ],
      [
        "▁Cầu",
        -2362.0
      ],
      [
        "▁Đắk",
        -2363.0
      ],
      [
        "▁trúng",
        -2364.0
      ],
      [
        "▁Don",
        -2365.0
      ],
      [
        "▁hè",
        -2366.0
      ],
      [
        "▁Tình",
        -2367.0
      ],
      [
        "▁tụ",
        -2368.0
      ],
      [
        "bia",
        -2369.0
      ],
      [
        "▁San",
        -2370.0
      ],
      [
        "▁xứ",
        -2371.0
      ],
      [
        "▁Quyết",
        -2372.0
      ],
      [
        "▁Kết",
        -2373.0
      ],
      [
        "▁trào",
        -2374.0
      ],
      [
        "ke",
        -2375.0
      ],
      [
        "▁Điệp",
        -2376.0
      ],
      [
        "▁Aus",
        -2377.0
      ],
      [
        "▁thang",
        -2378.0
      ],
      [
        "ghan",
        -2379.0
      ],
      [
        "▁chăm",
        -2380.0
      ],
      [
        "▁Thứ",
        -2381.0
      ],
      [
        "ela",
        -2382.0
      ],
      [
        "ick",
        -2383.0
      ],
      [
        "▁kênh",
        -2384.0
      ],
      [
        "▁tận",
        -2385.0
      ],
      [
        "▁nhảy",
        -2386.0
      ],
      [
        "▁ga",
        -2387.0
      ],
      [
        "▁hoang",
        -2388.0
      ],
      [
        "▁Đoán",
        -2389.0
      ],
      [
        "▁bò",
        -2390.0
      ],
      [
        "ation",
        -2391.0
      ],
      [
        "▁hiếp",
        -2392.0
      ],
      [
        "▁Ưu",
        -2393.0
      ],
      [
        "▁Tu",
        -2394.0
      ],
      [
        "▁ẩn",
        -2395.0
      ],
      [
        "▁Trịnh",
        -2396.0
      ],
      [
        "▁Cer",
        -2397.0
      ],
      [
        "ans",
        -2398.0
      ],
      [
        "och",
        -2399.0
      ],
      [
        "tu",
        -2400.0
      ],
      [
        "lad",
        -2401.0
      ],
      [
        "ue",
        -2402.0
      ],
      [
        "▁Tin",
        -2403.0
      ],
      [
        "▁cân",
        -2404.0
      ],
      [
        "▁chụp",
        -2405.0
      ],
      [
        "▁chấn",
        -2406.0
      ],
      [
        "ox",
        -2407.0
      ],
      [
        "▁đoán",
        -2408.0
      ],
      [
        "▁Đĩa",
        -2409.0
      ],
      [
        "▁And",
        -2410.0
      ],
      [
        "▁Afghan",
        -2411.0
      ],
      [
        "ẫm",
        -2412.0
      ],
      [
        "ba",
        -2413.0
      ],
      [
        "iếng",
        -2414.0
      ],
      [
        "iaceae",
        -2415.0
      ],
      [
        "▁Paris",
        -2416.0
      ],
      [
        "▁trúc",
        -2417.0
      ],
      [
        "▁Afghanistan",
        -2418.0
      ],
      [
        "ame",
        -2419.0
      ],
      [
        "▁nhật",
        -2420.0
      ],
      [
        "▁mưa",
        -2421.0
      ],
      [
        "▁Viet",
        -2422.0
      ],
      [
        "▁Pakistan",
        -2423.0
      ],
      [
        "ớt",
        -2424.0
      ],
      [
        "▁chủng",
        -2425.0
      ],
      [
        "▁Ass",
        -2426.0
      ],
      [
        "▁đỉnh",
        -2427.0
      ],
      [
        "▁Ad",
        -2428.0
      ],
      [
        "ary",
        -2429.0
      ],
      [
        "co",
        -2430.0
      ],
      [
        "▁khúc",
        -2431.0
      ],
      [
        "se",
        -2432.0
      ],
      [
        "▁dưỡng",
        -2433.0
      ],
      [
        "▁Quan",
        -2434.0
      ],
      [
        "▁Đền",
        -2435.0
      ],
      [
        "▁Thường",
        -2436.0
      ],
      [
        "▁cà",
        -2437.0
      ],
      [
        "▁bọn",
        -2438.0
      ],
      [
        "lor",
        -2439.0
      ],
      [
        "▁ví",
        -2440.0
      ],
      [
        "iếc",
        -2441.0
      ],
      [
        "▁cơn",
        -2442.0
      ],
      [
        "▁Tông",
        -2443.0
      ],
      [
        "▁CP",
        -2444.0
      ],
      [
        "▁linh",
        -2445.0
      ],
      [
        "▁ưu",
        -2446.0
      ],
      [
        "▁Mi",
        -2447.0
      ],
      [
        "▁Nông",
        -2448.0
      ],
      [
        "va",
        -2449.0
      ],
      [
        "metr",
        -2450.0
      ],
      [
        "optera",
        -2451.0
      ],
      [
        "▁Đợt",
        -2452.0
      ],
      [
        "▁ngàn",
        -2453.0
      ],
      [
        "▁York",
        -2454.0
      ],
      [
        "▁Geometr",
        -2455.0
      ],
      [
        "▁Sing",
        -2456.0
      ],
      [
        "▁Geometridae",
        -2457.0
      ],
      [
        "per",
        -2458.0
      ],
      [
        "▁tắt",
        -2459.0
      ],
      [
        "▁Khoa",
        -2460.0
      ],
      [
        "▁Tuyên",
        -2461.0
      ],
      [
        "én",
        -2462.0
      ],
      [
        "▁xỉ",
        -2463.0
      ],
      [
        "▁mẽ",
        -2464.0
      ],
      [
        "▁Trọng",
        -2465.0
      ],
      [
        "▁Mặt",
        -2466.0
      ],
      [
        "▁hô",
        -2467.0
      ],
      [
        "▁rối",
        -2468.0
      ],
      [
        "▁chảy",
        -2469.0
      ],
      [
        "▁tri",
        -2470.0
      ],
      [
        "▁Lợi",
        -2471.0
      ],
      [
        "▁mỏ",
        -2472.0
      ],
      [
        "▁tàn",
        -2473.0
      ],
      [
        "▁đồn",
        -2474.0
      ],
      [
        "▁Hành",
        -2475.0
      ],
      [
        "▁ruột",
        -2476.0
      ],
      [
        "▁mấy",
        -2477.0
      ],
      [
        "▁hề",
        -2478.0
      ],
      [
        "▁quỹ",
        -2479.0
      ],
      [
        "▁Inter",
        -2480.0
      ],
      [
        "▁Dự",
        -2481.0
      ],
      [
        "▁trạm",
        -2482.0
      ],
      [
        "oz",
        -2483.0
      ],
      [
        "▁ghế",
        -2484.0
      ],
      [
        "▁hương",
        -2485.0
      ],
      [
        "▁Hiếu",
        -2486.0
      ],
      [
        "▁thầu",
        -2487.0
      ],
      [
        "▁sổ",
        -2488.0
      ],
      [
        "▁Mosc",
        -2489.0
      ],
      [
        "▁Úc",
        -2490.0
      ],
      [
        "▁Hôm",
        -2491.0
      ],
      [
        "▁thơ",
        -2492.0
      ],
      [
        "▁It",
        -2493.0
      ],
      [
        "▁Du",
        -2494.0
      ],
      [
        "▁tuyệt",
        -2495.0
      ],
      [
        "▁Tấn",
        -2496.0
      ],
      [
        "▁Sài",
        -2497.0
      ],
      [
        "▁chim",
        -2498.0
      ],
      [
        "▁Moscow",
        -2499.0
      ],
      [
        "▁trải",
        -2500.0
      ],
      [
        "▁Ống",
        -2501.0
      ],
      [
        "▁gói",
        -2502.0
      ],
      [
        "▁Giao",
        -2503.0
      ],
      [
        "enn",
        -2504.0
      ],
      [
        "▁Đặng",
        -2505.0
      ],
      [
        "▁treo",
        -2506.0
      ],
      [
        "▁chìm",
        -2507.0
      ],
      [
        "▁nghèo",
        -2508.0
      ],
      [
        "▁hối",
        -2509.0
      ],
      [
        "▁Kr",
        -2510.0
      ],
      [
        "▁mộ",
        -2511.0
      ],
      [
        "▁dập",
        -2512.0
      ],
      [
        "▁ruồi",
        -2513.0
      ],
      [
        "▁Austr",
        -2514.0
      ],
      [
        "TC",
        -2515.0
      ],
      [
        "▁trọ",
        -2516.0
      ],
      [
        "▁tung",
        -2517.0
      ],
      [
        "▁mm",
        -2518.0
      ],
      [
        "▁Thiếu",
        -2519.0
      ],
      [
        "▁Hoàn",
        -2520.0
      ],
      [
        "▁cản",
        -2521.0
      ],
      [
        "ênh",
        -2522.0
      ],
      [
        "men",
        -2523.0
      ],
      [
        "▁cóc",
        -2524.0
      ],
      [
        "▁tặng",
        -2525.0
      ],
      [
        "▁cát",
        -2526.0
      ],
      [
        "ani",
        -2527.0
      ],
      [
        "▁Chương",
        -2528.0
      ],
      [
        "ợn",
        -2529.0
      ],
      [
        "▁Tỉnh",
        -2530.0
      ],
      [
        "▁đợt",
        -2531.0
      ],
      [
        "▁Dù",
        -2532.0
      ],
      [
        "▁Thạch",
        -2533.0
      ],
      [
        "aul",
        -2534.0
      ],
      [
        "▁Bra",
        -2535.0
      ],
      [
        "▁lựa",
        -2536.0
      ],
      [
        "▁e",
        -2537.0
      ],
      [
        "▁Đệ",
        -2538.0
      ],
      [
        "▁ống",
        -2539.0
      ],
      [
        "yn",
        -2540.0
      ],
      [
        "▁tường",
        -2541.0
      ],
      [
        "▁hư",
        -2542.0
      ],
      [
        "igh",
        -2543.0
      ],
      [
        "▁Huỳnh",
        -2544.0
      ],
      [
        "▁đĩa",
        -2545.0
      ],
      [
        "▁Un",
        -2546.0
      ],
      [
        "▁Ác",
        -2547.0
      ],
      [
        "▁Tối",
        -2548.0
      ],
      [
        "▁Lã",
        -2549.0
      ],
      [
        "▁lạnh",
        -2550.0
      ],
      [
        "ói",
        -2551.0
      ],
      [
        "▁nguyện",
        -2552.0
      ],
      [
        "▁sóc",
        -2553.0
      ],
      [
        "aria",
        -2554.0
      ],
      [
        "▁Quý",
        -2555.0
      ],
      [
        "▁Sal",
        -2556.0
      ],
      [
        "▁Bang",
        -2557.0
      ],
      [
        "▁PCC",
        -2558.0
      ],
      [
        "▁lưới",
        -2559.0
      ],
      [
        "▁Cẩm",
        -2560.0
      ],
      [
        "▁vẻ",
        -2561.0
      ],
      [
        "▁gà",
        -2562.0
      ],
      [
        "iidae",
        -2563.0
      ],
      [
        "▁Rom",
        -2564.0
      ],
      [
        "▁Noc",
        -2565.0
      ],
      [
        "ern",
        -2566.0
      ],
      [
        "urg",
        -2567.0
      ],
      [
        "▁PCCC",
        -2568.0
      ],
      [
        "▁khổ",
        -2569.0
      ],
      [
        "▁Gòn",
        -2570.0
      ],
      [
        "▁ngựa",
        -2571.0
      ],
      [
        "▁Mạnh",
        -2572.0
      ],
      [
        "▁Tên",
        -2573.0
      ],
      [
        "▁thiệu",
        -2574.0
      ],
      [
        "uchia",
        -2575.0
      ],
      [
        "▁phiến",
        -2576.0
      ],
      [
        "▁cờ",
        -2577.0
      ],
      [
        "▁Cả",
        -2578.0
      ],
      [
        "▁Noctu",
        -2579.0
      ],
      [
        "▁AP",
        -2580.0
      ],
      [
        "▁Úy",
        -2581.0
      ],
      [
        "▁Noctuidae",
        -2582.0
      ],
      [
        "▁Cho",
        -2583.0
      ],
      [
        "▁Nhận",
        -2584.0
      ],
      [
        "ts",
        -2585.0
      ],
      [
        "▁Em",
        -2586.0
      ],
      [
        "amp",
        -2587.0
      ],
      [
        "▁Campuchia",
        -2588.0
      ],
      [
        "▁sót",
        -2589.0
      ],
      [
        "▁Tùng",
        -2590.0
      ],
      [
        "▁ác",
        -2591.0
      ],
      [
        "yp",
        -2592.0
      ],
      [
        "▁Tim",
        -2593.0
      ],
      [
        "▁vui",
        -2594.0
      ],
      [
        "▁kém",
        -2595.0
      ],
      [
        "▁Bo",
        -2596.0
      ],
      [
        "▁thiệp",
        -2597.0
      ],
      [
        "▁Bài",
        -2598.0
      ],
      [
        "▁mực",
        -2599.0
      ],
      [
        "▁Cúc",
        -2600.0
      ],
      [
        "▁Di",
        -2601.0
      ],
      [
        "▁dọc",
        -2602.0
      ],
      [
        "ebook",
        -2603.0
      ],
      [
        "▁sa",
        -2604.0
      ],
      [
        "▁ngo",
        -2605.0
      ],
      [
        "▁úy",
        -2606.0
      ],
      [
        "HCM",
        -2607.0
      ],
      [
        "▁Kiev",
        -2608.0
      ],
      [
        "acebook",
        -2609.0
      ],
      [
        "▁điệp",
        -2610.0
      ],
      [
        "▁Tết",
        -2611.0
      ],
      [
        "▁bật",
        -2612.0
      ],
      [
        "▁Pet",
        -2613.0
      ],
      [
        "▁hắn",
        -2614.0
      ],
      [
        "▁tước",
        -2615.0
      ],
      [
        "▁đền",
        -2616.0
      ],
      [
        "▁Nhóm",
        -2617.0
      ],
      [
        "▁TPHCM",
        -2618.0
      ],
      [
        "▁thao",
        -2619.0
      ],
      [
        "▁rủ",
        -2620.0
      ],
      [
        "▁Tất",
        -2621.0
      ],
      [
        "▁hàm",
        -2622.0
      ],
      [
        "▁Cách",
        -2623.0
      ],
      [
        "▁Hol",
        -2624.0
      ],
      [
        "▁Chị",
        -2625.0
      ],
      [
        "eria",
        -2626.0
      ],
      [
        "ish",
        -2627.0
      ],
      [
        "▁bùng",
        -2628.0
      ],
      [
        "▁phỏng",
        -2629.0
      ],
      [
        "▁Na",
        -2630.0
      ],
      [
        "▁tổn",
        -2631.0
      ],
      [
        "▁bến",
        -2632.0
      ],
      [
        "▁Canada",
        -2633.0
      ],
      [
        "BC",
        -2634.0
      ],
      [
        "èm",
        -2635.0
      ],
      [
        "▁taxi",
        -2636.0
      ],
      [
        "▁Ốc",
        -2637.0
      ],
      [
        "▁xo",
        -2638.0
      ],
      [
        "▁Trà",
        -2639.0
      ],
      [
        "ero",
        -2640.0
      ],
      [
        "▁ngọn",
        -2641.0
      ],
      [
        "▁Be",
        -2642.0
      ],
      [
        "▁Lao",
        -2643.0
      ],
      [
        "ka",
        -2644.0
      ],
      [
        "▁màn",
        -2645.0
      ],
      [
        "ith",
        -2646.0
      ],
      [
        "▁khảo",
        -2647.0
      ],
      [
        "art",
        -2648.0
      ],
      [
        "ania",
        -2649.0
      ],
      [
        "▁chạm",
        -2650.0
      ],
      [
        "up",
        -2651.0
      ],
      [
        "▁Libya",
        -2652.0
      ],
      [
        "▁uy",
        -2653.0
      ],
      [
        "ala",
        -2654.0
      ],
      [
        "ino",
        -2655.0
      ],
      [
        "uối",
        -2656.0
      ],
      [
        "AN",
        -2657.0
      ],
      [
        "yo",
        -2658.0
      ],
      [
        "▁trồng",
        -2659.0
      ],
      [
        "▁Thực",
        -2660.0
      ],
      [
        "▁Bằng",
        -2661.0
      ],
      [
        "▁Hãng",
        -2662.0
      ],
      [
        "▁lật",
        -2663.0
      ],
      [
        "▁lối",
        -2664.0
      ],
      [
        "▁tỏa",
        -2665.0
      ],
      [
        "▁thả",
        -2666.0
      ],
      [
        "▁nghiện",
        -2667.0
      ],
      [
        "▁Kiên",
        -2668.0
      ],
      [
        "ite",
        -2669.0
      ],
      [
        "▁tụng",
        -2670.0
      ],
      [
        "▁thách",
        -2671.0
      ],
      [
        "ycidae",
        -2672.0
      ],
      [
        "▁Hơn",
        -2673.0
      ],
      [
        "ys",
        -2674.0
      ],
      [
        "ush",
        -2675.0
      ],
      [
        "▁kia",
        -2676.0
      ],
      [
        "▁thí",
        -2677.0
      ],
      [
        "▁web",
        -2678.0
      ],
      [
        "▁Cty",
        -2679.0
      ],
      [
        "▁En",
        -2680.0
      ],
      [
        "▁Thống",
        -2681.0
      ],
      [
        "▁khích",
        -2682.0
      ],
      [
        "uth",
        -2683.0
      ],
      [
        "▁lưng",
        -2684.0
      ],
      [
        "▁va",
        -2685.0
      ],
      [
        "▁News",
        -2686.0
      ],
      [
        "▁ốc",
        -2687.0
      ],
      [
        "les",
        -2688.0
      ],
      [
        "▁Đợi",
        -2689.0
      ],
      [
        "▁Quỳnh",
        -2690.0
      ],
      [
        "HQ",
        -2691.0
      ],
      [
        "osa",
        -2692.0
      ],
      [
        "▁Jong",
        -2693.0
      ],
      [
        "▁săn",
        -2694.0
      ],
      [
        "ẫy",
        -2695.0
      ],
      [
        "▁sáu",
        -2696.0
      ],
      [
        "▁cổng",
        -2697.0
      ],
      [
        "▁Phần",
        -2698.0
      ],
      [
        "▁Or",
        -2699.0
      ],
      [
        "▁So",
        -2700.0
      ],
      [
        "▁Bắt",
        -2701.0
      ],
      [
        "▁tiêm",
        -2702.0
      ],
      [
        "aka",
        -2703.0
      ],
      [
        "▁Ceramb",
        -2704.0
      ],
      [
        "▁xưng",
        -2705.0
      ],
      [
        "▁Cerambycidae",
        -2706.0
      ],
      [
        "▁cặp",
        -2707.0
      ],
      [
        "▁Cai",
        -2708.0
      ],
      [
        "ella",
        -2709.0
      ],
      [
        "▁Huyện",
        -2710.0
      ],
      [
        "▁Chiếc",
        -2711.0
      ],
      [
        "▁Per",
        -2712.0
      ],
      [
        "▁lãi",
        -2713.0
      ],
      [
        "la",
        -2714.0
      ],
      [
        "▁ấn",
        -2715.0
      ],
      [
        "tor",
        -2716.0
      ],
      [
        "ler",
        -2717.0
      ],
      [
        "▁Ang",
        -2718.0
      ],
      [
        "ate",
        -2719.0
      ],
      [
        "▁Mer",
        -2720.0
      ],
      [
        "▁Ấp",
        -2721.0
      ],
      [
        "▁cai",
        -2722.0
      ],
      [
        "ẹt",
        -2723.0
      ],
      [
        "▁miễn",
        -2724.0
      ],
      [
        "▁mệnh",
        -2725.0
      ],
      [
        "▁tan",
        -2726.0
      ],
      [
        "▁giản",
        -2727.0
      ],
      [
        "▁Mor",
        -2728.0
      ],
      [
        "▁vỏ",
        -2729.0
      ],
      [
        "▁CN",
        -2730.0
      ],
      [
        "ượn",
        -2731.0
      ],
      [
        "ice",
        -2732.0
      ],
      [
        "osh",
        -2733.0
      ],
      [
        "▁nã",
        -2734.0
      ],
      [
        "fi",
        -2735.0
      ],
      [
        "▁Hiến",
        -2736.0
      ],
      [
        "▁Nữ",
        -2737.0
      ],
      [
        "▁TTX",
        -2738.0
      ],
      [
        "▁trưa",
        -2739.0
      ],
      [
        "▁Tok",
        -2740.0
      ],
      [
        "▁Dav",
        -2741.0
      ],
      [
        "▁hộp",
        -2742.0
      ],
      [
        "▁Tiểu",
        -2743.0
      ],
      [
        "▁hài",
        -2744.0
      ],
      [
        "▁tống",
        -2745.0
      ],
      [
        "▁vườn",
        -2746.0
      ],
      [
        "▁mạch",
        -2747.0
      ],
      [
        "ile",
        -2748.0
      ],
      [
        "▁tấm",
        -2749.0
      ],
      [
        "▁Thấy",
        -2750.0
      ],
      [
        "▁dạy",
        -2751.0
      ],
      [
        "▁côn",
        -2752.0
      ],
      [
        "ond",
        -2753.0
      ],
      [
        "ớn",
        -2754.0
      ],
      [
        "▁Đua",
        -2755.0
      ],
      [
        "▁Quận",
        -2756.0
      ],
      [
        "ym",
        -2757.0
      ],
      [
        "▁che",
        -2758.0
      ],
      [
        "▁tách",
        -2759.0
      ],
      [
        "▁Australia",
        -2760.0
      ],
      [
        "▁trông",
        -2761.0
      ],
      [
        "▁rắn",
        -2762.0
      ],
      [
        "▁đợi",
        -2763.0
      ],
      [
        "▁Uy",
        -2764.0
      ],
      [
        "ust",
        -2765.0
      ],
      [
        "▁rác",
        -2766.0
      ],
      [
        "▁Ed",
        -2767.0
      ],
      [
        "▁mảnh",
        -2768.0
      ],
      [
        "▁thai",
        -2769.0
      ],
      [
        "▁Ám",
        -2770.0
      ],
      [
        "▁GD",
        -2771.0
      ],
      [
        "▁Ara",
        -2772.0
      ],
      [
        "▁com",
        -2773.0
      ],
      [
        "apore",
        -2774.0
      ],
      [
        "▁thùng",
        -2775.0
      ],
      [
        "IA",
        -2776.0
      ],
      [
        "▁chậm",
        -2777.0
      ],
      [
        "▁De",
        -2778.0
      ],
      [
        "▁gió",
        -2779.0
      ],
      [
        "ann",
        -2780.0
      ],
      [
        "▁gấp",
        -2781.0
      ],
      [
        "anth",
        -2782.0
      ],
      [
        "▁Ôm",
        -2783.0
      ],
      [
        "▁Singapore",
        -2784.0
      ],
      [
        "▁lắp",
        -2785.0
      ],
      [
        "▁Cuối",
        -2786.0
      ],
      [
        "▁thép",
        -2787.0
      ],
      [
        "▁lắng",
        -2788.0
      ],
      [
        "▁đua",
        -2789.0
      ],
      [
        "▁Lãnh",
        -2790.0
      ],
      [
        "▁thẻ",
        -2791.0
      ],
      [
        "▁Thạnh",
        -2792.0
      ],
      [
        "▁Đo",
        -2793.0
      ],
      [
        "▁Cái",
        -2794.0
      ],
      [
        "▁giàu",
        -2795.0
      ],
      [
        "▁Thảo",
        -2796.0
      ],
      [
        "▁thận",
        -2797.0
      ],
      [
        "▁Ben",
        -2798.0
      ],
      [
        "▁trùm",
        -2799.0
      ],
      [
        "▁khóc",
        -2800.0
      ],
      [
        "▁ám",
        -2801.0
      ],
      [
        "▁ôm",
        -2802.0
      ],
      [
        "ald",
        -2803.0
      ],
      [
        "▁Mau",
        -2804.0
      ],
      [
        "ura",
        -2805.0
      ],
      [
        "▁leo",
        -2806.0
      ],
      [
        "▁hu",
        -2807.0
      ],
      [
        "▁Tiếp",
        -2808.0
      ],
      [
        "▁tháo",
        -2809.0
      ],
      [
        "▁lũ",
        -2810.0
      ],
      [
        "▁ấp",
        -2811.0
      ],
      [
        "▁LHQ",
        -2812.0
      ],
      [
        "▁Đống",
        -2813.0
      ],
      [
        "ía",
        -2814.0
      ],
      [
        "▁bế",
        -2815.0
      ],
      [
        "▁Máy",
        -2816.0
      ],
      [
        "ộn",
        -2817.0
      ],
      [
        "▁dịp",
        -2818.0
      ],
      [
        "▁Tú",
        -2819.0
      ],
      [
        "▁Trị",
        -2820.0
      ],
      [
        "▁hỏng",
        -2821.0
      ],
      [
        "▁Nhưỡng",
        -2822.0
      ],
      [
        "▁Char",
        -2823.0
      ],
      [
        "▁Pol",
        -2824.0
      ],
      [
        "▁thánh",
        -2825.0
      ],
      [
        "▁Xuyên",
        -2826.0
      ],
      [
        "sh",
        -2827.0
      ],
      [
        "▁tiệm",
        -2828.0
      ],
      [
        "ệt",
        -2829.0
      ],
      [
        "uz",
        -2830.0
      ],
      [
        "▁Assad",
        -2831.0
      ],
      [
        "uro",
        -2832.0
      ],
      [
        "▁Ag",
        -2833.0
      ],
      [
        "ụt",
        -2834.0
      ],
      [
        "▁Ap",
        -2835.0
      ],
      [
        "ley",
        -2836.0
      ],
      [
        "▁hầm",
        -2837.0
      ],
      [
        "▁xạ",
        -2838.0
      ],
      [
        "▁Đoan",
        -2839.0
      ],
      [
        "▁dị",
        -2840.0
      ],
      [
        "▁triệt",
        -2841.0
      ],
      [
        "▁kín",
        -2842.0
      ],
      [
        "▁lôi",
        -2843.0
      ],
      [
        "▁Rob",
        -2844.0
      ],
      [
        "ena",
        -2845.0
      ],
      [
        "▁thôi",
        -2846.0
      ],
      [
        "▁Ukraina",
        -2847.0
      ],
      [
        "▁cm",
        -2848.0
      ],
      [
        "att",
        -2849.0
      ],
      [
        "▁khói",
        -2850.0
      ],
      [
        "▁yên",
        -2851.0
      ],
      [
        "enko",
        -2852.0
      ],
      [
        "amm",
        -2853.0
      ],
      [
        "▁cưỡng",
        -2854.0
      ],
      [
        "▁dã",
        -2855.0
      ],
      [
        "ýt",
        -2856.0
      ],
      [
        "▁tùy",
        -2857.0
      ],
      [
        "▁Hoài",
        -2858.0
      ],
      [
        "▁xưởng",
        -2859.0
      ],
      [
        "▁chốt",
        -2860.0
      ],
      [
        "▁khoan",
        -2861.0
      ],
      [
        "▁hiến",
        -2862.0
      ],
      [
        "▁Quy",
        -2863.0
      ],
      [
        "▁Er",
        -2864.0
      ],
      [
        "▁Min",
        -2865.0
      ],
      [
        "oss",
        -2866.0
      ],
      [
        "▁vn",
        -2867.0
      ],
      [
        "▁Tự",
        -2868.0
      ],
      [
        "▁kèm",
        -2869.0
      ],
      [
        "▁hồng",
        -2870.0
      ],
      [
        "▁Thánh",
        -2871.0
      ],
      [
        "ima",
        -2872.0
      ],
      [
        "▁vành",
        -2873.0
      ],
      [
        "▁Vlad",
        -2874.0
      ],
      [
        "▁CH",
        -2875.0
      ],
      [
        "▁Ven",
        -2876.0
      ],
      [
        "▁Hiền",
        -2877.0
      ],
      [
        "▁Se",
        -2878.0
      ],
      [
        "▁Giấy",
        -2879.0
      ],
      [
        "▁mũi",
        -2880.0
      ],
      [
        "▁Mich",
        -2881.0
      ],
      [
        "▁Triệu",
        -2882.0
      ],
      [
        "▁Vũng",
        -2883.0
      ],
      [
        "bank",
        -2884.0
      ],
      [
        "▁cỏ",
        -2885.0
      ],
      [
        "▁TTXVN",
        -2886.0
      ],
      [
        "▁Dung",
        -2887.0
      ],
      [
        "▁Bu",
        -2888.0
      ],
      [
        "▁Kiến",
        -2889.0
      ],
      [
        "tt",
        -2890.0
      ],
      [
        "ila",
        -2891.0
      ],
      [
        "▁Crim",
        -2892.0
      ],
      [
        "▁Trắng",
        -2893.0
      ],
      [
        "▁buồn",
        -2894.0
      ],
      [
        "ld",
        -2895.0
      ],
      [
        "NT",
        -2896.0
      ],
      [
        "▁chúa",
        -2897.0
      ],
      [
        "▁xương",
        -2898.0
      ],
      [
        "▁Bến",
        -2899.0
      ],
      [
        "▁hùng",
        -2900.0
      ],
      [
        "ail",
        -2901.0
      ],
      [
        "▁nỗi",
        -2902.0
      ],
      [
        "▁Dư",
        -2903.0
      ],
      [
        "ằn",
        -2904.0
      ],
      [
        "▁Cà",
        -2905.0
      ],
      [
        "▁thua",
        -2906.0
      ],
      [
        "ood",
        -2907.0
      ],
      [
        "▁hẹn",
        -2908.0
      ],
      [
        "▁Kế",
        -2909.0
      ],
      [
        "▁nhãn",
        -2910.0
      ],
      [
        "▁Diễn",
        -2911.0
      ],
      [
        "▁Barack",
        -2912.0
      ],
      [
        "▁bè",
        -2913.0
      ],
      [
        "▁vắng",
        -2914.0
      ],
      [
        "eth",
        -2915.0
      ],
      [
        "▁Sam",
        -2916.0
      ],
      [
        "▁chẽ",
        -2917.0
      ],
      [
        "eph",
        -2918.0
      ],
      [
        "▁chùa",
        -2919.0
      ],
      [
        "▁Rh",
        -2920.0
      ],
      [
        "asc",
        -2921.0
      ],
      [
        "ris",
        -2922.0
      ],
      [
        "▁ngũ",
        -2923.0
      ],
      [
        "ney",
        -2924.0
      ],
      [
        "▁khuôn",
        -2925.0
      ],
      [
        "▁đo",
        -2926.0
      ],
      [
        "▁Đèn",
        -2927.0
      ],
      [
        "▁BKS",
        -2928.0
      ],
      [
        "▁giận",
        -2929.0
      ],
      [
        "▁cưới",
        -2930.0
      ],
      [
        "▁Song",
        -2931.0
      ],
      [
        "itt",
        -2932.0
      ],
      [
        "reb",
        -2933.0
      ],
      [
        "▁Thăng",
        -2934.0
      ],
      [
        "oth",
        -2935.0
      ],
      [
        "▁già",
        -2936.0
      ],
      [
        "▁tông",
        -2937.0
      ],
      [
        "▁dội",
        -2938.0
      ],
      [
        "▁Palest",
        -2939.0
      ],
      [
        "▁hiếm",
        -2940.0
      ],
      [
        "▁Will",
        -2941.0
      ],
      [
        "ậc",
        -2942.0
      ],
      [
        "OV",
        -2943.0
      ],
      [
        "▁Os",
        -2944.0
      ],
      [
        "▁lẻ",
        -2945.0
      ],
      [
        "▁oan",
        -2946.0
      ],
      [
        "▁Crimea",
        -2947.0
      ],
      [
        "▁Mỗi",
        -2948.0
      ],
      [
        "ott",
        -2949.0
      ],
      [
        "▁tân",
        -2950.0
      ],
      [
        "▁Mad",
        -2951.0
      ],
      [
        "▁nhậu",
        -2952.0
      ],
      [
        "▁Com",
        -2953.0
      ],
      [
        "▁Thi",
        -2954.0
      ],
      [
        "▁hoãn",
        -2955.0
      ],
      [
        "▁Pro",
        -2956.0
      ],
      [
        "éo",
        -2957.0
      ],
      [
        "▁khiếu",
        -2958.0
      ],
      [
        "▁Nạn",
        -2959.0
      ],
      [
        "▁đèn",
        -2960.0
      ],
      [
        "▁Hệ",
        -2961.0
      ],
      [
        "▁Tokyo",
        -2962.0
      ],
      [
        "▁Đạp",
        -2963.0
      ],
      [
        "▁Học",
        -2964.0
      ],
      [
        "▁rad",
        -2965.0
      ],
      [
        "rys",
        -2966.0
      ],
      [
        "▁and",
        -2967.0
      ],
      [
        "▁khuyến",
        -2968.0
      ],
      [
        "▁bậc",
        -2969.0
      ],
      [
        "▁kiên",
        -2970.0
      ],
      [
        "▁lợn",
        -2971.0
      ],
      [
        "oll",
        -2972.0
      ],
      [
        "▁đạp",
        -2973.0
      ],
      [
        "▁game",
        -2974.0
      ],
      [
        "tin",
        -2975.0
      ],
      [
        "▁Thư",
        -2976.0
      ],
      [
        "▁góc",
        -2977.0
      ],
      [
        "▁Cuba",
        -2978.0
      ],
      [
        "▁AS",
        -2979.0
      ],
      [
        "▁mái",
        -2980.0
      ],
      [
        "ida",
        -2981.0
      ],
      [
        "▁hoạn",
        -2982.0
      ],
      [
        "▁gỡ",
        -2983.0
      ],
      [
        "▁Đồi",
        -2984.0
      ],
      [
        "ark",
        -2985.0
      ],
      [
        "▁Bal",
        -2986.0
      ],
      [
        "▁Palestine",
        -2987.0
      ],
      [
        "di",
        -2988.0
      ],
      [
        "▁thiêu",
        -2989.0
      ],
      [
        "▁đệ",
        -2990.0
      ],
      [
        "▁điển",
        -2991.0
      ],
      [
        "onidae",
        -2992.0
      ],
      [
        "▁Chung",
        -2993.0
      ],
      [
        "imir",
        -2994.0
      ],
      [
        "ìa",
        -2995.0
      ],
      [
        "iana",
        -2996.0
      ],
      [
        "ca",
        -2997.0
      ],
      [
        "▁hổ",
        -2998.0
      ],
      [
        "atus",
        -2999.0
      ],
      [
        "▁vò",
        -3000.0
      ],
      [
        "▁Xe",
        -3001.0
      ],
      [
        "▁i",
        -3002.0
      ],
      [
        "▁j",
        -3003.0
      ],
      [
        "▁hứa",
        -3004.0
      ],
      [
        "ein",
        -3005.0
      ],
      [
        "▁Truyền",
        -3006.0
      ],
      [
        "▁xả",
        -3007.0
      ],
      [
        "▁bù",
        -3008.0
      ],
      [
        "▁MH",
        -3009.0
      ],
      [
        "sen",
        -3010.0
      ],
      [
        "▁bê",
        -3011.0
      ],
      [
        "▁lò",
        -3012.0
      ],
      [
        "ola",
        -3013.0
      ],
      [
        "▁Quá",
        -3014.0
      ],
      [
        "▁dò",
        -3015.0
      ],
      [
        "▁tị",
        -3016.0
      ],
      [
        "▁Alex",
        -3017.0
      ],
      [
        "▁Đẻ",
        -3018.0
      ],
      [
        "▁Trao",
        -3019.0
      ],
      [
        "▁Thịnh",
        -3020.0
      ],
      [
        "▁sạch",
        -3021.0
      ],
      [
        "▁xông",
        -3022.0
      ],
      [
        "▁duyệt",
        -3023.0
      ],
      [
        "▁Điền",
        -3024.0
      ],
      [
        "▁trần",
        -3025.0
      ],
      [
        "▁Nhất",
        -3026.0
      ],
      [
        "▁Geor",
        -3027.0
      ],
      [
        "▁Sĩ",
        -3028.0
      ],
      [
        "▁dàng",
        -3029.0
      ],
      [
        "berg",
        -3030.0
      ],
      [
        "▁cột",
        -3031.0
      ],
      [
        "▁Co",
        -3032.0
      ],
      [
        "▁đẻ",
        -3033.0
      ],
      [
        "▁mượn",
        -3034.0
      ],
      [
        "▁Tham",
        -3035.0
      ],
      [
        "▁cự",
        -3036.0
      ],
      [
        "▁hỗn",
        -3037.0
      ],
      [
        "▁bia",
        -3038.0
      ],
      [
        "▁đoan",
        -3039.0
      ],
      [
        "▁Mu",
        -3040.0
      ],
      [
        "eri",
        -3041.0
      ],
      [
        "kh",
        -3042.0
      ],
      [
        "▁Bá",
        -3043.0
      ],
      [
        "▁VI",
        -3044.0
      ],
      [
        "▁truyện",
        -3045.0
      ],
      [
        "▁Facebook",
        -3046.0
      ],
      [
        "ơm",
        -3047.0
      ],
      [
        "▁Môi",
        -3048.0
      ],
      [
        "▁camera",
        -3049.0
      ],
      [
        "▁Vladimir",
        -3050.0
      ],
      [
        "▁Sư",
        -3051.0
      ],
      [
        "▁đậu",
        -3052.0
      ],
      [
        "▁Lat",
        -3053.0
      ],
      [
        "▁BV",
        -3054.0
      ],
      [
        "sil",
        -3055.0
      ],
      [
        "▁thầy",
        -3056.0
      ],
      [
        "▁Thừa",
        -3057.0
      ],
      [
        "▁Sinh",
        -3058.0
      ],
      [
        "▁Mới",
        -3059.0
      ],
      [
        "▁Trái",
        -3060.0
      ],
      [
        "▁ngoái",
        -3061.0
      ],
      [
        "▁nhượng",
        -3062.0
      ],
      [
        "▁Giới",
        -3063.0
      ],
      [
        "▁bọc",
        -3064.0
      ],
      [
        "▁Wal",
        -3065.0
      ],
      [
        "▁khơi",
        -3066.0
      ],
      [
        "rom",
        -3067.0
      ],
      [
        "▁Tính",
        -3068.0
      ],
      [
        "rad",
        -3069.0
      ],
      [
        "▁Shi",
        -3070.0
      ],
      [
        "tain",
        -3071.0
      ],
      [
        "burg",
        -3072.0
      ],
      [
        "▁ven",
        -3073.0
      ],
      [
        "▁Liêm",
        -3074.0
      ],
      [
        "▁mai",
        -3075.0
      ],
      [
        "ỉa",
        -3076.0
      ],
      [
        "ater",
        -3077.0
      ],
      [
        "▁món",
        -3078.0
      ],
      [
        "▁Ra",
        -3079.0
      ],
      [
        "▁VOV",
        -3080.0
      ],
      [
        "▁lang",
        -3081.0
      ],
      [
        "▁Đẳng",
        -3082.0
      ],
      [
        "ron",
        -3083.0
      ],
      [
        "▁dường",
        -3084.0
      ],
      [
        "uck",
        -3085.0
      ],
      [
        "▁Đuôi",
        -3086.0
      ],
      [
        "old",
        -3087.0
      ],
      [
        "▁Ân",
        -3088.0
      ],
      [
        "rop",
        -3089.0
      ],
      [
        "esh",
        -3090.0
      ],
      [
        "▁nại",
        -3091.0
      ],
      [
        "▁Bro",
        -3092.0
      ],
      [
        "▁đồi",
        -3093.0
      ],
      [
        "nat",
        -3094.0
      ],
      [
        "▁ex",
        -3095.0
      ],
      [
        "▁nhắn",
        -3096.0
      ],
      [
        "▁Mc",
        -3097.0
      ],
      [
        "ity",
        -3098.0
      ],
      [
        "▁Hung",
        -3099.0
      ],
      [
        "▁Ereb",
        -3100.0
      ],
      [
        "alis",
        -3101.0
      ],
      [
        "▁Ich",
        -3102.0
      ],
      [
        "ari",
        -3103.0
      ],
      [
        "▁non",
        -3104.0
      ],
      [
        "▁ha",
        -3105.0
      ],
      [
        "iệng",
        -3106.0
      ],
      [
        "▁tọa",
        -3107.0
      ],
      [
        "▁thiểu",
        -3108.0
      ],
      [
        "▁Cát",
        -3109.0
      ],
      [
        "▁mỹ",
        -3110.0
      ],
      [
        "▁xóa",
        -3111.0
      ],
      [
        "▁Erebidae",
        -3112.0
      ],
      [
        "▁Ôtô",
        -3113.0
      ],
      [
        "eng",
        -3114.0
      ],
      [
        "▁khô",
        -3115.0
      ],
      [
        "▁Gre",
        -3116.0
      ],
      [
        "▁Liêu",
        -3117.0
      ],
      [
        "▁Bạch",
        -3118.0
      ],
      [
        "▁gián",
        -3119.0
      ],
      [
        "▁Bel",
        -3120.0
      ],
      [
        "▁mừng",
        -3121.0
      ],
      [
        "▁tháp",
        -3122.0
      ],
      [
        "▁VKSND",
        -3123.0
      ],
      [
        "▁TQ",
        -3124.0
      ],
      [
        "▁soạn",
        -3125.0
      ],
      [
        "ini",
        -3126.0
      ],
      [
        "▁dày",
        -3127.0
      ],
      [
        "▁Sm",
        -3128.0
      ],
      [
        "▁tò",
        -3129.0
      ],
      [
        "▁lông",
        -3130.0
      ],
      [
        "▁Video",
        -3131.0
      ],
      [
        "▁đức",
        -3132.0
      ],
      [
        "▁cương",
        -3133.0
      ],
      [
        "▁than",
        -3134.0
      ],
      [
        "▁Trí",
        -3135.0
      ],
      [
        "▁hoại",
        -3136.0
      ],
      [
        "▁tặc",
        -3137.0
      ],
      [
        "▁đẳng",
        -3138.0
      ],
      [
        "ew",
        -3139.0
      ],
      [
        "▁hấp",
        -3140.0
      ],
      [
        "▁tim",
        -3141.0
      ],
      [
        "▁củng",
        -3142.0
      ],
      [
        "▁viễn",
        -3143.0
      ],
      [
        "▁ôtô",
        -3144.0
      ],
      [
        "▁Phật",
        -3145.0
      ],
      [
        "▁tiềm",
        -3146.0
      ],
      [
        "oon",
        -3147.0
      ],
      [
        "ck",
        -3148.0
      ],
      [
        "iam",
        -3149.0
      ],
      [
        "▁tuân",
        -3150.0
      ],
      [
        "▁Wor",
        -3151.0
      ],
      [
        "yll",
        -3152.0
      ],
      [
        "▁túc",
        -3153.0
      ],
      [
        "▁miệng",
        -3154.0
      ],
      [
        "▁Lục",
        -3155.0
      ],
      [
        "▁Mex",
        -3156.0
      ],
      [
        "▁Lắk",
        -3157.0
      ],
      [
        "▁khung",
        -3158.0
      ],
      [
        "▁Lin",
        -3159.0
      ],
      [
        "▁đuôi",
        -3160.0
      ],
      [
        "ague",
        -3161.0
      ],
      [
        "▁tràn",
        -3162.0
      ],
      [
        "▁mê",
        -3163.0
      ],
      [
        "▁Lon",
        -3164.0
      ],
      [
        "▁thợ",
        -3165.0
      ],
      [
        "▁Cận",
        -3166.0
      ],
      [
        "neum",
        -3167.0
      ],
      [
        "▁dược",
        -3168.0
      ],
      [
        "▁dám",
        -3169.0
      ],
      [
        "nam",
        -3170.0
      ],
      [
        "▁Khê",
        -3171.0
      ],
      [
        "▁Huyền",
        -3172.0
      ],
      [
        "▁hòn",
        -3173.0
      ],
      [
        "▁QL",
        -3174.0
      ],
      [
        "▁Đan",
        -3175.0
      ],
      [
        "▁Her",
        -3176.0
      ],
      [
        "ix",
        -3177.0
      ],
      [
        "▁Jam",
        -3178.0
      ],
      [
        "akh",
        -3179.0
      ],
      [
        "ặm",
        -3180.0
      ],
      [
        "▁thước",
        -3181.0
      ],
      [
        "▁nhát",
        -3182.0
      ],
      [
        "▁Lạc",
        -3183.0
      ],
      [
        "HS",
        -3184.0
      ],
      [
        "▁Tương",
        -3185.0
      ],
      [
        "▁Kon",
        -3186.0
      ],
      [
        "▁Đắc",
        -3187.0
      ],
      [
        "aya",
        -3188.0
      ],
      [
        "▁Mexico",
        -3189.0
      ],
      [
        "▁Kur",
        -3190.0
      ],
      [
        "▁Tử",
        -3191.0
      ],
      [
        "▁Hymen",
        -3192.0
      ],
      [
        "▁kiêm",
        -3193.0
      ],
      [
        "uss",
        -3194.0
      ],
      [
        "▁mạc",
        -3195.0
      ],
      [
        "▁cỡ",
        -3196.0
      ],
      [
        "▁voi",
        -3197.0
      ],
      [
        "ight",
        -3198.0
      ],
      [
        "▁niềm",
        -3199.0
      ],
      [
        "ano",
        -3200.0
      ],
      [
        "▁Là",
        -3201.0
      ],
      [
        "▁Gần",
        -3202.0
      ],
      [
        "▁mắn",
        -3203.0
      ],
      [
        "ver",
        -3204.0
      ],
      [
        "▁form",
        -3205.0
      ],
      [
        "ale",
        -3206.0
      ],
      [
        "▁Gra",
        -3207.0
      ],
      [
        "▁Lễ",
        -3208.0
      ],
      [
        "▁trôi",
        -3209.0
      ],
      [
        "aoke",
        -3210.0
      ],
      [
        "▁Cor",
        -3211.0
      ],
      [
        "▁Vin",
        -3212.0
      ],
      [
        "▁Vị",
        -3213.0
      ],
      [
        "ỡi",
        -3214.0
      ],
      [
        "▁rêu",
        -3215.0
      ],
      [
        "▁láng",
        -3216.0
      ],
      [
        "▁thám",
        -3217.0
      ],
      [
        "▁tóc",
        -3218.0
      ],
      [
        "▁On",
        -3219.0
      ],
      [
        "ita",
        -3220.0
      ],
      [
        "▁sáp",
        -3221.0
      ],
      [
        "▁Ly",
        -3222.0
      ],
      [
        "▁Seo",
        -3223.0
      ],
      [
        "▁TCN",
        -3224.0
      ],
      [
        "onia",
        -3225.0
      ],
      [
        "▁vững",
        -3226.0
      ],
      [
        "▁Tôn",
        -3227.0
      ],
      [
        "▁xô",
        -3228.0
      ],
      [
        "▁Ker",
        -3229.0
      ],
      [
        "▁Hằng",
        -3230.0
      ],
      [
        "▁Sông",
        -3231.0
      ],
      [
        "▁mùi",
        -3232.0
      ],
      [
        "etsk",
        -3233.0
      ],
      [
        "▁sữa",
        -3234.0
      ],
      [
        "▁Bởi",
        -3235.0
      ],
      [
        "▁kar",
        -3236.0
      ],
      [
        "▁chăn",
        -3237.0
      ],
      [
        "▁sập",
        -3238.0
      ],
      [
        "▁Venez",
        -3239.0
      ],
      [
        "ides",
        -3240.0
      ],
      [
        "▁radar",
        -3241.0
      ],
      [
        "▁Ichneum",
        -3242.0
      ],
      [
        "▁buýt",
        -3243.0
      ],
      [
        "▁nhầm",
        -3244.0
      ],
      [
        "▁móc",
        -3245.0
      ],
      [
        "▁đỗ",
        -3246.0
      ],
      [
        "rov",
        -3247.0
      ],
      [
        "ros",
        -3248.0
      ],
      [
        "▁mổ",
        -3249.0
      ],
      [
        "▁lỗ",
        -3250.0
      ],
      [
        "▁lọt",
        -3251.0
      ],
      [
        "LĐ",
        -3252.0
      ],
      [
        "▁Ex",
        -3253.0
      ],
      [
        "▁Thú",
        -3254.0
      ],
      [
        "▁trống",
        -3255.0
      ],
      [
        "els",
        -3256.0
      ],
      [
        "▁kẹt",
        -3257.0
      ],
      [
        "▁Mon",
        -3258.0
      ],
      [
        "▁Căn",
        -3259.0
      ],
      [
        "▁Hạnh",
        -3260.0
      ],
      [
        "ward",
        -3261.0
      ],
      [
        "▁Quyền",
        -3262.0
      ],
      [
        "▁Nor",
        -3263.0
      ],
      [
        "▁Đụng",
        -3264.0
      ],
      [
        "▁Sl",
        -3265.0
      ],
      [
        "▁huống",
        -3266.0
      ],
      [
        "ych",
        -3267.0
      ],
      [
        "éc",
        -3268.0
      ],
      [
        "▁xách",
        -3269.0
      ],
      [
        "▁võ",
        -3270.0
      ],
      [
        "▁vỉa",
        -3271.0
      ],
      [
        "ull",
        -3272.0
      ],
      [
        "▁man",
        -3273.0
      ],
      [
        "ềng",
        -3274.0
      ],
      [
        "▁giềng",
        -3275.0
      ],
      [
        "▁Lạng",
        -3276.0
      ],
      [
        "▁Câu",
        -3277.0
      ],
      [
        "▁Chrys",
        -3278.0
      ],
      [
        "▁Med",
        -3279.0
      ],
      [
        "▁Sân",
        -3280.0
      ],
      [
        "iforn",
        -3281.0
      ],
      [
        "inae",
        -3282.0
      ],
      [
        "▁quang",
        -3283.0
      ],
      [
        "▁Ca",
        -3284.0
      ],
      [
        "▁Il",
        -3285.0
      ],
      [
        "ars",
        -3286.0
      ],
      [
        "asil",
        -3287.0
      ],
      [
        "▁World",
        -3288.0
      ],
      [
        "▁cốt",
        -3289.0
      ],
      [
        "uela",
        -3290.0
      ],
      [
        "▁un",
        -3291.0
      ],
      [
        "▁phu",
        -3292.0
      ],
      [
        "▁Thiện",
        -3293.0
      ],
      [
        "▁Myan",
        -3294.0
      ],
      [
        "tic",
        -3295.0
      ],
      [
        "▁Rập",
        -3296.0
      ],
      [
        "▁cơm",
        -3297.0
      ],
      [
        "ide",
        -3298.0
      ],
      [
        "oa",
        -3299.0
      ],
      [
        "▁Đựng",
        -3300.0
      ],
      [
        "▁Ken",
        -3301.0
      ],
      [
        "▁đựng",
        -3302.0
      ],
      [
        "sky",
        -3303.0
      ],
      [
        "▁chào",
        -3304.0
      ],
      [
        "▁Nước",
        -3305.0
      ],
      [
        "▁Yo",
        -3306.0
      ],
      [
        "▁Ichneumonidae",
        -3307.0
      ],
      [
        "▁Tín",
        -3308.0
      ],
      [
        "▁Tờ",
        -3309.0
      ],
      [
        "▁chôn",
        -3310.0
      ],
      [
        "▁bề",
        -3311.0
      ],
      [
        "▁Gl",
        -3312.0
      ],
      [
        "ota",
        -3313.0
      ],
      [
        "▁Sang",
        -3314.0
      ],
      [
        "▁London",
        -3315.0
      ],
      [
        "▁Bỉ",
        -3316.0
      ],
      [
        "aly",
        -3317.0
      ],
      [
        "▁Bồ",
        -3318.0
      ],
      [
        "▁bạch",
        -3319.0
      ],
      [
        "▁sp",
        -3320.0
      ],
      [
        "▁dỡ",
        -3321.0
      ],
      [
        "▁rào",
        -3322.0
      ],
      [
        "▁lề",
        -3323.0
      ],
      [
        "▁Donetsk",
        -3324.0
      ],
      [
        "▁dãy",
        -3325.0
      ],
      [
        "omel",
        -3326.0
      ],
      [
        "▁Kông",
        -3327.0
      ],
      [
        "▁ngực",
        -3328.0
      ],
      [
        "▁lầm",
        -3329.0
      ],
      [
        "rich",
        -3330.0
      ],
      [
        "ops",
        -3331.0
      ],
      [
        "den",
        -3332.0
      ],
      [
        "▁Kể",
        -3333.0
      ],
      [
        "ifornia",
        -3334.0
      ],
      [
        "▁Ac",
        -3335.0
      ],
      [
        "▁dính",
        -3336.0
      ],
      [
        "▁pha",
        -3337.0
      ],
      [
        "ille",
        -3338.0
      ],
      [
        "▁bột",
        -3339.0
      ],
      [
        "▁California",
        -3340.0
      ],
      [
        "▁bảy",
        -3341.0
      ],
      [
        "▁co",
        -3342.0
      ],
      [
        "▁Cố",
        -3343.0
      ],
      [
        "▁Đeo",
        -3344.0
      ],
      [
        "▁Ẩm",
        -3345.0
      ],
      [
        "imon",
        -3346.0
      ],
      [
        "▁tật",
        -3347.0
      ],
      [
        "▁Arg",
        -3348.0
      ],
      [
        "▁tròn",
        -3349.0
      ],
      [
        "▁giảng",
        -3350.0
      ],
      [
        "ee",
        -3351.0
      ],
      [
        "rid",
        -3352.0
      ],
      [
        "▁Bur",
        -3353.0
      ],
      [
        "ỗng",
        -3354.0
      ],
      [
        "▁Mac",
        -3355.0
      ],
      [
        "▁lấn",
        -3356.0
      ],
      [
        "aku",
        -3357.0
      ],
      [
        "▁đụng",
        -3358.0
      ],
      [
        "mer",
        -3359.0
      ],
      [
        "ren",
        -3360.0
      ],
      [
        "▁đeo",
        -3361.0
      ],
      [
        "▁ranh",
        -3362.0
      ],
      [
        "▁Riêng",
        -3363.0
      ],
      [
        "▁lạm",
        -3364.0
      ],
      [
        "▁Venezuela",
        -3365.0
      ],
      [
        "▁giàn",
        -3366.0
      ],
      [
        "▁nảy",
        -3367.0
      ],
      [
        "rus",
        -3368.0
      ],
      [
        "▁Bất",
        -3369.0
      ],
      [
        "ora",
        -3370.0
      ],
      [
        "wa",
        -3371.0
      ],
      [
        "▁Li",
        -3372.0
      ],
      [
        "nataka",
        -3373.0
      ],
      [
        "▁Karnataka",
        -3374.0
      ],
      [
        "gh",
        -3375.0
      ],
      [
        "▁Tal",
        -3376.0
      ],
      [
        "▁quét",
        -3377.0
      ],
      [
        "▁ngõ",
        -3378.0
      ],
      [
        "▁vuông",
        -3379.0
      ],
      [
        "▁chai",
        -3380.0
      ],
      [
        "▁Cá",
        -3381.0
      ],
      [
        "▁rãi",
        -3382.0
      ],
      [
        "▁karaoke",
        -3383.0
      ],
      [
        "▁Môn",
        -3384.0
      ],
      [
        "▁bó",
        -3385.0
      ],
      [
        "▁Gad",
        -3386.0
      ],
      [
        "▁Internet",
        -3387.0
      ],
      [
        "▁Kiều",
        -3388.0
      ],
      [
        "▁Pan",
        -3389.0
      ],
      [
        "▁Ái",
        -3390.0
      ],
      [
        "▁vĩ",
        -3391.0
      ],
      [
        "▁ung",
        -3392.0
      ],
      [
        "▁Je",
        -3393.0
      ],
      [
        "▁canh",
        -3394.0
      ],
      [
        "▁lỏng",
        -3395.0
      ],
      [
        "DC",
        -3396.0
      ],
      [
        "▁ASE",
        -3397.0
      ],
      [
        "▁David",
        -3398.0
      ],
      [
        "▁Ham",
        -3399.0
      ],
      [
        "▁Nov",
        -3400.0
      ],
      [
        "▁bụi",
        -3401.0
      ],
      [
        "▁Hạm",
        -3402.0
      ],
      [
        "▁Times",
        -3403.0
      ],
      [
        "▁lồ",
        -3404.0
      ],
      [
        "▁Sao",
        -3405.0
      ],
      [
        "▁khổng",
        -3406.0
      ],
      [
        "ner",
        -3407.0
      ],
      [
        "ji",
        -3408.0
      ],
      [
        "▁ẩm",
        -3409.0
      ],
      [
        "ni",
        -3410.0
      ],
      [
        "▁Út",
        -3411.0
      ],
      [
        "▁formula",
        -3412.0
      ],
      [
        "ona",
        -3413.0
      ],
      [
        "▁vịnh",
        -3414.0
      ],
      [
        "▁Por",
        -3415.0
      ],
      [
        "▁vội",
        -3416.0
      ],
      [
        "▁dàn",
        -3417.0
      ],
      [
        "▁cú",
        -3418.0
      ],
      [
        "▁liều",
        -3419.0
      ],
      [
        "▁Lập",
        -3420.0
      ],
      [
        "▁Gen",
        -3421.0
      ],
      [
        "yd",
        -3422.0
      ],
      [
        "▁Hymenoptera",
        -3423.0
      ],
      [
        "▁Cử",
        -3424.0
      ],
      [
        "▁mạo",
        -3425.0
      ],
      [
        "▁Val",
        -3426.0
      ],
      [
        "▁khen",
        -3427.0
      ],
      [
        "▁ASEAN",
        -3428.0
      ],
      [
        "▁League",
        -3429.0
      ],
      [
        "▁lui",
        -3430.0
      ],
      [
        "▁làn",
        -3431.0
      ],
      [
        "▁Tướng",
        -3432.0
      ],
      [
        "pt",
        -3433.0
      ],
      [
        "▁teh",
        -3434.0
      ],
      [
        "ùy",
        -3435.0
      ],
      [
        "▁Tô",
        -3436.0
      ],
      [
        "▁Cương",
        -3437.0
      ],
      [
        "▁Phổ",
        -3438.0
      ],
      [
        "▁DN",
        -3439.0
      ],
      [
        "▁TS",
        -3440.0
      ],
      [
        "▁Mông",
        -3441.0
      ],
      [
        "▁nát",
        -3442.0
      ],
      [
        "▁William",
        -3443.0
      ],
      [
        "▁Viên",
        -3444.0
      ],
      [
        "▁Ky",
        -3445.0
      ],
      [
        "▁Đứt",
        -3446.0
      ],
      [
        "ane",
        -3447.0
      ],
      [
        "▁tehsil",
        -3448.0
      ],
      [
        "▁nề",
        -3449.0
      ],
      [
        "▁hưu",
        -3450.0
      ],
      [
        "▁Bạc",
        -3451.0
      ],
      [
        "▁rà",
        -3452.0
      ],
      [
        "▁Khang",
        -3453.0
      ],
      [
        "▁AT",
        -3454.0
      ],
      [
        "▁say",
        -3455.0
      ],
      [
        "▁bi",
        -3456.0
      ],
      [
        "▁phế",
        -3457.0
      ],
      [
        "rist",
        -3458.0
      ],
      [
        "▁Mel",
        -3459.0
      ],
      [
        "lines",
        -3460.0
      ],
      [
        "▁Ngãi",
        -3461.0
      ],
      [
        "▁Rêu",
        -3462.0
      ],
      [
        "emen",
        -3463.0
      ],
      [
        "▁Hầu",
        -3464.0
      ],
      [
        "▁Huệ",
        -3465.0
      ],
      [
        "▁mát",
        -3466.0
      ],
      [
        "▁đứt",
        -3467.0
      ],
      [
        "▁Myanmar",
        -3468.0
      ],
      [
        "▁san",
        -3469.0
      ],
      [
        "▁III",
        -3470.0
      ],
      [
        "ander",
        -3471.0
      ],
      [
        "ech",
        -3472.0
      ],
      [
        "SC",
        -3473.0
      ],
      [
        "▁bám",
        -3474.0
      ],
      [
        "▁Cựu",
        -3475.0
      ],
      [
        "▁giọng",
        -3476.0
      ],
      [
        "▁mãi",
        -3477.0
      ],
      [
        "▁lành",
        -3478.0
      ],
      [
        "li",
        -3479.0
      ],
      [
        "▁Sóc",
        -3480.0
      ],
      [
        "▁quên",
        -3481.0
      ],
      [
        "▁Gaz",
        -3482.0
      ],
      [
        "zil",
        -3483.0
      ],
      [
        "▁tiếc",
        -3484.0
      ],
      [
        "age",
        -3485.0
      ],
      [
        "▁vẽ",
        -3486.0
      ],
      [
        "▁rụi",
        -3487.0
      ],
      [
        "▁Tống",
        -3488.0
      ],
      [
        "▁Phượng",
        -3489.0
      ],
      [
        "ũa",
        -3490.0
      ],
      [
        "eld",
        -3491.0
      ],
      [
        "▁Hal",
        -3492.0
      ],
      [
        "▁lắm",
        -3493.0
      ],
      [
        "ett",
        -3494.0
      ],
      [
        "SA",
        -3495.0
      ],
      [
        "▁tẩu",
        -3496.0
      ],
      [
        "▁hứng",
        -3497.0
      ],
      [
        "▁Seoul",
        -3498.0
      ],
      [
        "go",
        -3499.0
      ],
      [
        "▁Xem",
        -3500.0
      ],
      [
        "▁rạng",
        -3501.0
      ],
      [
        "▁não",
        -3502.0
      ],
      [
        "iy",
        -3503.0
      ],
      [
        "▁nhựa",
        -3504.0
      ],
      [
        "▁bỏng",
        -3505.0
      ],
      [
        "▁tắm",
        -3506.0
      ],
      [
        "▁Chúa",
        -3507.0
      ],
      [
        "▁Park",
        -3508.0
      ],
      [
        "▁tĩnh",
        -3509.0
      ],
      [
        "ốm",
        -3510.0
      ],
      [
        "▁Rich",
        -3511.0
      ],
      [
        "▁ngọt",
        -3512.0
      ],
      [
        "▁chừng",
        -3513.0
      ],
      [
        "▁kì",
        -3514.0
      ],
      [
        "▁ngập",
        -3515.0
      ],
      [
        "▁nhiêu",
        -3516.0
      ],
      [
        "▁Abe",
        -3517.0
      ],
      [
        "▁thở",
        -3518.0
      ],
      [
        "FA",
        -3519.0
      ],
      [
        "ram",
        -3520.0
      ],
      [
        "▁trầm",
        -3521.0
      ],
      [
        "ect",
        -3522.0
      ],
      [
        "▁heo",
        -3523.0
      ],
      [
        "▁Chân",
        -3524.0
      ],
      [
        "▁Phía",
        -3525.0
      ],
      [
        "▁Cup",
        -3526.0
      ],
      [
        "aeda",
        -3527.0
      ],
      [
        "▁Paul",
        -3528.0
      ],
      [
        "▁Mo",
        -3529.0
      ],
      [
        "der",
        -3530.0
      ],
      [
        "▁lọc",
        -3531.0
      ],
      [
        "▁Tiếng",
        -3532.0
      ],
      [
        "ớp",
        -3533.0
      ],
      [
        "kok",
        -3534.0
      ],
      [
        "▁Moh",
        -3535.0
      ],
      [
        "▁Thiết",
        -3536.0
      ],
      [
        "▁chép",
        -3537.0
      ],
      [
        "▁khôi",
        -3538.0
      ],
      [
        "▁Brazil",
        -3539.0
      ],
      [
        "▁He",
        -3540.0
      ],
      [
        "bo",
        -3541.0
      ],
      [
        "ael",
        -3542.0
      ],
      [
        "▁Es",
        -3543.0
      ],
      [
        "▁huyết",
        -3544.0
      ],
      [
        "▁khiêu",
        -3545.0
      ],
      [
        "▁Trạch",
        -3546.0
      ],
      [
        "rag",
        -3547.0
      ],
      [
        "CB",
        -3548.0
      ],
      [
        "▁sụp",
        -3549.0
      ],
      [
        "▁Mil",
        -3550.0
      ],
      [
        "▁Đằng",
        -3551.0
      ],
      [
        "▁Shin",
        -3552.0
      ],
      [
        "▁Mùa",
        -3553.0
      ],
      [
        "▁Ngư",
        -3554.0
      ],
      [
        "▁Xây",
        -3555.0
      ],
      [
        "▁Phiên",
        -3556.0
      ],
      [
        "▁gục",
        -3557.0
      ],
      [
        "eroin",
        -3558.0
      ],
      [
        "▁Dai",
        -3559.0
      ],
      [
        "▁Phụ",
        -3560.0
      ],
      [
        "▁bá",
        -3561.0
      ],
      [
        "▁o",
        -3562.0
      ],
      [
        "▁Abd",
        -3563.0
      ],
      [
        "▁chút",
        -3564.0
      ],
      [
        "▁Tur",
        -3565.0
      ],
      [
        "▁Trinh",
        -3566.0
      ],
      [
        "arb",
        -3567.0
      ],
      [
        "▁ĐT",
        -3568.0
      ],
      [
        "▁tảng",
        -3569.0
      ],
      [
        "▁Bích",
        -3570.0
      ],
      [
        "▁phẫu",
        -3571.0
      ],
      [
        "▁Khai",
        -3572.0
      ],
      [
        "▁Nhơn",
        -3573.0
      ],
      [
        "▁Del",
        -3574.0
      ],
      [
        "▁Cảng",
        -3575.0
      ],
      [
        "▁Jos",
        -3576.0
      ],
      [
        "▁Cap",
        -3577.0
      ],
      [
        "▁BBC",
        -3578.0
      ],
      [
        "eland",
        -3579.0
      ],
      [
        "odes",
        -3580.0
      ],
      [
        "▁Ind",
        -3581.0
      ],
      [
        "▁Qaeda",
        -3582.0
      ],
      [
        "▁Nig",
        -3583.0
      ],
      [
        "▁lặng",
        -3584.0
      ],
      [
        "▁heroin",
        -3585.0
      ],
      [
        "▁dâu",
        -3586.0
      ],
      [
        "▁Trạm",
        -3587.0
      ],
      [
        "▁Ir",
        -3588.0
      ],
      [
        "▁giường",
        -3589.0
      ],
      [
        "▁Lam",
        -3590.0
      ],
      [
        "itz",
        -3591.0
      ],
      [
        "▁mười",
        -3592.0
      ],
      [
        "▁bây",
        -3593.0
      ],
      [
        "▁George",
        -3594.0
      ],
      [
        "pl",
        -3595.0
      ],
      [
        "erm",
        -3596.0
      ],
      [
        "▁All",
        -3597.0
      ],
      [
        "▁xích",
        -3598.0
      ],
      [
        "▁Airlines",
        -3599.0
      ],
      [
        "▁Ros",
        -3600.0
      ],
      [
        "▁Oce",
        -3601.0
      ],
      [
        "▁Khắc",
        -3602.0
      ],
      [
        "▁sắm",
        -3603.0
      ],
      [
        "▁Bangkok",
        -3604.0
      ],
      [
        "▁trứng",
        -3605.0
      ],
      [
        "▁Vịnh",
        -3606.0
      ],
      [
        "▁cười",
        -3607.0
      ],
      [
        "are",
        -3608.0
      ],
      [
        "▁Dầu",
        -3609.0
      ],
      [
        "dafi",
        -3610.0
      ],
      [
        "▁xưa",
        -3611.0
      ],
      [
        "▁Nói",
        -3612.0
      ],
      [
        "▁nhắm",
        -3613.0
      ],
      [
        "▁Mosk",
        -3614.0
      ],
      [
        "ẳn",
        -3615.0
      ],
      [
        "▁Thậm",
        -3616.0
      ],
      [
        "▁Wil",
        -3617.0
      ],
      [
        "▁trâu",
        -3618.0
      ],
      [
        "ấc",
        -3619.0
      ],
      [
        "▁Lệ",
        -3620.0
      ],
      [
        "▁Mục",
        -3621.0
      ],
      [
        "▁ngừa",
        -3622.0
      ],
      [
        "▁Trả",
        -3623.0
      ],
      [
        "▁bàng",
        -3624.0
      ],
      [
        "▁Sử",
        -3625.0
      ],
      [
        "▁CQ",
        -3626.0
      ],
      [
        "▁Ocean",
        -3627.0
      ],
      [
        "▁Chưa",
        -3628.0
      ],
      [
        "▁ngộ",
        -3629.0
      ],
      [
        "IV",
        -3630.0
      ],
      [
        "▁Gaddafi",
        -3631.0
      ],
      [
        "▁Robert",
        -3632.0
      ],
      [
        "ign",
        -3633.0
      ],
      [
        "▁NLĐ",
        -3634.0
      ],
      [
        "▁bữa",
        -3635.0
      ],
      [
        "▁Trăng",
        -3636.0
      ],
      [
        "inton",
        -3637.0
      ],
      [
        "▁Rất",
        -3638.0
      ],
      [
        "QT",
        -3639.0
      ],
      [
        "ene",
        -3640.0
      ],
      [
        "▁At",
        -3641.0
      ],
      [
        "▁Lầu",
        -3642.0
      ],
      [
        "▁Tháp",
        -3643.0
      ],
      [
        "awa",
        -3644.0
      ],
      [
        "▁sơn",
        -3645.0
      ],
      [
        "▁Phủ",
        -3646.0
      ],
      [
        "▁Giết",
        -3647.0
      ],
      [
        "▁hào",
        -3648.0
      ],
      [
        "▁gọn",
        -3649.0
      ],
      [
        "▁Mẹ",
        -3650.0
      ],
      [
        "▁PL",
        -3651.0
      ],
      [
        "▁Cửa",
        -3652.0
      ],
      [
        "▁mìn",
        -3653.0
      ],
      [
        "▁tia",
        -3654.0
      ],
      [
        "▁Lee",
        -3655.0
      ],
      [
        "▁Kerry",
        -3656.0
      ],
      [
        "▁Ơn",
        -3657.0
      ],
      [
        "▁Ro",
        -3658.0
      ],
      [
        "▁mồi",
        -3659.0
      ],
      [
        "▁USS",
        -3660.0
      ],
      [
        "▁táng",
        -3661.0
      ],
      [
        "▁Niên",
        -3662.0
      ],
      [
        "▁Bé",
        -3663.0
      ],
      [
        "▁Điệu",
        -3664.0
      ],
      [
        "▁ri",
        -3665.0
      ],
      [
        "▁Mat",
        -3666.0
      ],
      [
        "▁Bol",
        -3667.0
      ],
      [
        "sch",
        -3668.0
      ],
      [
        "▁Ví",
        -3669.0
      ],
      [
        "▁Dam",
        -3670.0
      ],
      [
        "▁Serg",
        -3671.0
      ],
      [
        "▁Arct",
        -3672.0
      ],
      [
        "CS",
        -3673.0
      ],
      [
        "▁khuyên",
        -3674.0
      ],
      [
        "▁Thân",
        -3675.0
      ],
      [
        "oma",
        -3676.0
      ],
      [
        "ham",
        -3677.0
      ],
      [
        "▁Hen",
        -3678.0
      ],
      [
        "adi",
        -3679.0
      ],
      [
        "▁phun",
        -3680.0
      ],
      [
        "ova",
        -3681.0
      ],
      [
        "▁Bul",
        -3682.0
      ],
      [
        "▁Av",
        -3683.0
      ],
      [
        "con",
        -3684.0
      ],
      [
        "▁giây",
        -3685.0
      ],
      [
        "ha",
        -3686.0
      ],
      [
        "▁rẻ",
        -3687.0
      ],
      [
        "▁quà",
        -3688.0
      ],
      [
        "▁rửa",
        -3689.0
      ],
      [
        "▁phú",
        -3690.0
      ],
      [
        "ria",
        -3691.0
      ],
      [
        "Bank",
        -3692.0
      ],
      [
        "ifol",
        -3693.0
[...]
